{
  "version": "1.0",
  "truncation": null,
  "padding": {
    "strategy": "BatchLongest",
    "direction": "Right",
    "pad_to_multiple_of": null,
    "pad_id": 0,
    "pad_type_id": 0,
    "pad_token": "[pad]"
  },
  "added_tokens": [
    {
      "id": 0,
      "content": "[pad]",
      "single_word": false,
      "lstrip": false,
      "rstrip": false,
      "normalized": false,
      "special": true
    },
    {
      "id": 1,
      "content": "[eos]",
      "single_word": false,
      "lstrip": false,
      "rstrip": false,
      "normalized": false,
      "special": true
    }
  ],
  "normalizer": null,
  "pre_tokenizer": {
    "type": "ByteLevel",
    "add_prefix_space": true,
    "trim_offsets": true,
    "use_regex": true
  },
  "post_processor": null,
  "decoder": {
    "type": "ByteLevel",
    "add_prefix_space": true,
    "trim_offsets": true,
    "use_regex": true
  },
  "model": {
    "type": "BPE",
    "dropout": null,
    "unk_token": null,
    "continuing_subword_prefix": null,
    "end_of_word_suffix": null,
    "fuse_unk": false,
    "byte_fallback": false,
    "ignore_merges": false,
    "vocab": {
      "[pad]": 0,
      "[eos]": 1,
      "!": 2,
      "\"": 3,
      "$": 4,
      "&": 5,
      "'": 6,
      "(": 7,
      ")": 8,
      "*": 9,
      "+": 10,
      ",": 11,
      "-": 12,
      ".": 13,
      "/": 14,
      "0": 15,
      "1": 16,
      "2": 17,
      "3": 18,
      "4": 19,
      "5": 20,
      "6": 21,
      "7": 22,
      "8": 23,
      "9": 24,
      ":": 25,
      ";": 26,
      "=": 27,
      "?": 28,
      "A": 29,
      "B": 30,
      "C": 31,
      "D": 32,
      "E": 33,
      "F": 34,
      "G": 35,
      "H": 36,
      "I": 37,
      "J": 38,
      "K": 39,
      "L": 40,
      "M": 41,
      "N": 42,
      "O": 43,
      "P": 44,
      "Q": 45,
      "R": 46,
      "S": 47,
      "T": 48,
      "U": 49,
      "V": 50,
      "W": 51,
      "X": 52,
      "Y": 53,
      "Z": 54,
      "[": 55,
      "]": 56,
      "_": 57,
      "a": 58,
      "b": 59,
      "c": 60,
      "d": 61,
      "e": 62,
      "f": 63,
      "g": 64,
      "h": 65,
      "i": 66,
      "j": 67,
      "k": 68,
      "l": 69,
      "m": 70,
      "n": 71,
      "o": 72,
      "p": 73,
      "q": 74,
      "r": 75,
      "s": 76,
      "t": 77,
      "u": 78,
      "v": 79,
      "w": 80,
      "x": 81,
      "y": 82,
      "z": 83,
      "|": 84,
      "}": 85,
      "¢": 86,
      "£": 87,
      "¤": 88,
      "¦": 89,
      "¨": 90,
      "©": 91,
      "ª": 92,
      "«": 93,
      "®": 94,
      "°": 95,
      "´": 96,
      "¶": 97,
      "¹": 98,
      "¼": 99,
      "Â": 100,
      "Ã": 101,
      "Å": 102,
      "Ë": 103,
      "â": 104,
      "ĉ": 105,
      "Ċ": 106,
      "Ġ": 107,
      "Ģ": 108,
      "Ĩ": 109,
      "Ī": 110,
      "ĭ": 111,
      "Ĵ": 112,
      "ĵ": 113,
      "Ķ": 114,
      "ĺ": 115,
      "Ļ": 116,
      "ļ": 117,
      "ľ": 118,
      "Ŀ": 119,
      "ł": 120,
      "Ġt": 121,
      "he": 122,
      "Ġa": 123,
      "Ġthe": 124,
      "in": 125,
      "Ġo": 126,
      "re": 127,
      "Ġw": 128,
      "er": 129,
      "Ġs": 130,
      "nd": 131,
      "Ġof": 132,
      "en": 133,
      "on": 134,
      "at": 135,
      "Ġb": 136,
      "ed": 137,
      "it": 138,
      "Ġf": 139,
      "is": 140,
      "Ġc": 141,
      "es": 142,
      "an": 143,
      "or": 144,
      "ou": 145,
      "Ġm": 146,
      "ar": 147,
      "Ġand": 148,
      "Ġto": 149,
      "Ġh": 150,
      "Ġin": 151,
      "ing": 152,
      "Ġp": 153,
      "al": 154,
      "as": 155,
      "Ġd": 156,
      "Ġth": 157,
      "ro": 158,
      "le": 159,
      "ion": 160,
      "ic": 161,
      "Ġn": 162,
      "Ġbe": 163,
      "ly": 164,
      "ad": 165,
      "ll": 166,
      "st": 167,
      "Ġe": 168,
      "ent": 169,
      "Ġl": 170,
      "ve": 171,
      "om": 172,
      "ct": 173,
      "ce": 174,
      "se": 175,
      "ĠI": 176,
      "Ġre": 177,
      "Ġg": 178,
      "ut": 179,
      "Ġon": 180,
      "ot": 181,
      "im": 182,
      "ur": 183,
      "ĠT": 184,
      "ld": 185,
      "Ġfor": 186,
      "Ġwh": 187,
      "Ġthat": 188,
      "ver": 189,
      "the": 190,
      "ow": 191,
      "ĠĠ": 192,
      "gh": 193,
      "Ġwas": 194,
      "ir": 195,
      "Ġwe": 196,
      "id": 197,
      "ith": 198,
      "Ġu": 199,
      "th": 200,
      "ch": 201,
      "Ġas": 202,
      "and": 203,
      "Ġit": 204,
      "ay": 205,
      "Ġhe": 206,
      "Ġwith": 207,
      "Ġis": 208,
      "il": 209,
      "ter": 210,
      "pe": 211,
      "ri": 212,
      "am": 213,
      "Ġat": 214,
      "ation": 215,
      "Ġan": 216,
      "Ġby": 217,
      "Ġst": 218,
      "rom": 219,
      "ain": 220,
      "if": 221,
      "et": 222,
      "ĠA": 223,
      "ich": 224,
      "ght": 225,
      "Ġor": 226,
      "ĠThe": 227,
      "ould": 228,
      "ĠS": 229,
      "Ġha": 230,
      "Ġhad": 231,
      "Ġsu": 232,
      "ge": 233,
      "Ġse": 234,
      "ss": 235,
      "ies": 236,
      "red": 237,
      "ac": 238,
      "Ġfrom": 239,
      "ĠB": 240,
      "Ġnot": 241,
      "Ġwhich": 242,
      "em": 243,
      "ab": 244,
      "ill": 245,
      "ĠG": 246,
      "ul": 247,
      "ess": 248,
      "ore": 249,
      "Ġex": 250,
      "Ġcon": 251,
      "ers": 252,
      "Ġwere": 253,
      "nt": 254,
      "Ġcom": 255,
      "Ġhave": 256,
      "ant": 257,
      "ĠC": 258,
      "ĠM": 259,
      "est": 260,
      "ol": 261,
      "Ġr": 262,
      "Ġde": 263,
      "Ġv": 264,
      "pp": 265,
      "od": 266,
      "ĠĠĠĠ": 267,
      "ther": 268,
      "ist": 269,
      "ight": 270,
      "ĠH": 271,
      "Ġthis": 272,
      "ate": 273,
      "ort": 274,
      "Ġbut": 275,
      "Ġy": 276,
      "Ġare": 277,
      "qu": 278,
      "op": 279,
      "her": 280,
      "ak": 281,
      "Ġhis": 282,
      "iv": 283,
      "ap": 284,
      "Ġpro": 285,
      "man": 286,
      "us": 287,
      "Ġsh": 288,
      "ome": 289,
      "ie": 290,
      "our": 291,
      "Ġne": 292,
      "Ġtheir": 293,
      "ard": 294,
      "un": 295,
      "ous": 296,
      "Ġso": 297,
      "Ġall": 298,
      "ĠW": 299,
      "ment": 300,
      "Ġbeen": 301,
      "os": 302,
      "fe": 303,
      "--": 304,
      "to": 305,
      "ust": 306,
      "Ġ1": 307,
      "art": 308,
      "Ġthey": 309,
      "Ġar": 310,
      "all": 311,
      "ener": 312,
      "um": 313,
      "ive": 314,
      "Ġwhe": 315,
      "Ġme": 316,
      "ĠR": 317,
      "ame": 318,
      "ĠF": 319,
      "Ġmy": 320,
      "âĢ": 321,
      "Ġal": 322,
      "ance": 323,
      "Ġk": 324,
      "ĠP": 325,
      "av": 326,
      "ure": 327,
      "reat": 328,
      "Ġen": 329,
      "ction": 330,
      "ong": 331,
      "ast": 332,
      "'s": 333,
      "ity": 334,
      "out": 335,
      "ost": 336,
      "Ġle": 337,
      "Ġone": 338,
      "el": 339,
      "00": 340,
      "cc": 341,
      "rou": 342,
      "ition": 343,
      "ig": 344,
      "eneral": 345,
      "Ġup": 346,
      "Ġwould": 347,
      "able": 348,
      "ru": 349,
      "Ġab": 350,
      "ack": 351,
      "ose": 352,
      "ans": 353,
      "ine": 354,
      "pec": 355,
      "ond": 356,
      "Ġman": 357,
      "ĠO": 358,
      "Ġch": 359,
      "Ġpl": 360,
      "te": 361,
      "ry": 362,
      "very": 363,
      "ag": 364,
      "ĠL": 365,
      "ren": 366,
      "erman": 367,
      "of": 368,
      "res": 369,
      "Ġsome": 370,
      "ind": 371,
      "we": 372,
      "Ġcomm": 373,
      "pt": 374,
      "ish": 375,
      "Ġthere": 376,
      "ade": 377,
      "Ġother": 378,
      "The": 379,
      "act": 380,
      "Ġad": 381,
      "Ġthem": 382,
      "Ġtw": 383,
      "Ġpo": 384,
      "ary": 385,
      "ated": 386,
      "Ġwill": 387,
      "ire": 388,
      "ount": 389,
      "ach": 390,
      "per": 391,
      "Ġim": 392,
      "hed": 393,
      "ime": 394,
      "nder": 395,
      "ally": 396,
      "ove": 397,
      "ĠN": 398,
      "ence": 399,
      "ck": 400,
      "Ġwho": 401,
      "ĠE": 402,
      "ide": 403,
      "Ġno": 404,
      "Ġcan": 405,
      "Ġfe": 406,
      "Ġspec": 407,
      "ations": 408,
      "ĠGerman": 409,
      "ari": 410,
      "Ġour": 411,
      "Ġany": 412,
      "ssi": 413,
      "ound": 414,
      "are": 415,
      "fore": 416,
      "pl": 417,
      "Ġhim": 418,
      "for": 419,
      "Ġwor": 420,
      "ass": 421,
      "Ġmore": 422,
      "ĠD": 423,
      "ood": 424,
      "de": 425,
      "ok": 426,
      "Ġyou": 427,
      "now": 428,
      "ace": 429,
      "sel": 430,
      "ne": 431,
      "Ġcl": 432,
      "port": 433,
      "Ġpart": 434,
      "ber": 435,
      "fic": 436,
      "Ġdo": 437,
      "ied": 438,
      "ree": 439,
      "ven": 440,
      "Ġform": 441,
      "Ġwhen": 442,
      "Ġcould": 443,
      "rit": 444,
      "age": 445,
      "Ġag": 446,
      "Ġtime": 447,
      "Ġsame": 448,
      "Ġun": 449,
      "Ġtwo": 450,
      "emy": 451,
      "ĠIt": 452,
      "Ġout": 453,
      "ved": 454,
      "ĠTh": 455,
      "tain": 456,
      "Ġif": 457,
      "ps": 458,
      "be": 459,
      "tle": 460,
      "ops": 461,
      "ake": 462,
      "my": 463,
      "Ġspecies": 464,
      "ult": 465,
      "Ġaf": 466,
      "Ġhas": 467,
      "ĠJ": 468,
      "ces": 469,
      "ĠĠĠĠĠĠĠĠ": 470,
      "Ġinto": 471,
      "roops": 472,
      "cl": 473,
      "Ġits": 474,
      "Ġper": 475,
      "Ġdis": 476,
      "Ġgreat": 477,
      "Ġthan": 478,
      "ced": 479,
      "Ġunder": 480,
      "Ġthese": 481,
      "int": 482,
      "ile": 483,
      "aw": 484,
      "Ġlo": 485,
      "su": 486,
      "Ġ2": 487,
      "Ġatt": 488,
      "ail": 489,
      "Ġro": 490,
      "ble": 491,
      "ke": 492,
      "au": 493,
      "one": 494,
      "irst": 495,
      "Ġ_": 496,
      "Ġtr": 497,
      "Ġdif": 498,
      "Ġenemy": 499,
      "ci": 500,
      "Ġj": 501,
      "Ġher": 502,
      "âĢĶ": 503,
      "Ġmay": 504,
      "Ġpre": 505,
      "cted": 506,
      "ks": 507,
      "Ġtroops": 508,
      "urn": 509,
      "con": 510,
      "Ġday": 511,
      "als": 512,
      "ĠHe": 513,
      "Ġ\"": 514,
      "Ġonly": 515,
      "Ġbet": 516,
      "ud": 517,
      "Ġmade": 518,
      "Ġknow": 519,
      "Ġnat": 520,
      "ars": 521,
      "Ġus": 522,
      "Ġmen": 523,
      "Ġover": 524,
      "uch": 525,
      "ted": 526,
      "Ġvery": 527,
      "ave": 528,
      "ite": 529,
      "osition": 530,
      "Ġri": 531,
      "Ġcommand": 532,
      "ĠGeneral": 533,
      "Ġqu": 534,
      "Ġsp": 535,
      "ough": 536,
      "ens": 537,
      "ween": 538,
      "Ġagain": 539,
      "wn": 540,
      "ings": 541,
      "Ġabout": 542,
      "rough": 543,
      "Ġob": 544,
      "ward": 545,
      "ĠIn": 546,
      "ase": 547,
      "Ġam": 548,
      "Ġdes": 549,
      "Ġfirst": 550,
      "Ġbel": 551,
      "Ġres": 552,
      "Ġmany": 553,
      "du": 554,
      "Ġrem": 555,
      "iz": 556,
      "ang": 557,
      "ft": 558,
      "ĠBut": 559,
      "Ġ19": 560,
      "wh": 561,
      "so": 562,
      "000": 563,
      "way": 564,
      "ex": 565,
      "Ġfo": 566,
      "Ġfl": 567,
      "je": 568,
      "Ġhow": 569,
      "ions": 570,
      "Ġvari": 571,
      "ĠV": 572,
      "Ġbec": 573,
      "Ġcomp": 574,
      "over": 575,
      "Ġnow": 576,
      "outh": 577,
      "Ġafter": 578,
      "ross": 579,
      "Ġmost": 580,
      "Ġdist": 581,
      "Ġsupp": 582,
      "ful": 583,
      "Ġsuch": 584,
      "Ġsub": 585,
      "ign": 586,
      "iss": 587,
      "Ġcont": 588,
      "llow": 589,
      "ress": 590,
      "Ġbefore": 591,
      "og": 592,
      "ont": 593,
      "Ġpr": 594,
      "ice": 595,
      "ving": 596,
      "led": 597,
      "uring": 598,
      "self": 599,
      "Ġbetween": 600,
      "Ġshould": 601,
      "orth": 602,
      "Ġthen": 603,
      "ory": 604,
      "arly": 605,
      "Ġshe": 606,
      "ical": 607,
      "Ġwhere": 608,
      "old": 609,
      "ments": 610,
      "ia": 611,
      "Ġadv": 612,
      "Ġwhat": 613,
      "ater": 614,
      "other": 615,
      "Ġthrough": 616,
      "Ġmuch": 617,
      "Ġbeing": 618,
      "land": 619,
      "ord": 620,
      "pro": 621,
      "Ġli": 622,
      "ue": 623,
      "Ġ191": 624,
      "ious": 625,
      "ants": 626,
      "ty": 627,
      "hes": 628,
      "ussi": 629,
      "own": 630,
      "ĠSt": 631,
      "Ġarmy": 632,
      "Ġcons": 633,
      "Ġupon": 634,
      "Ġwar": 635,
      "ep": 636,
      "med": 637,
      "Ġcor": 638,
      "Ġacc": 639,
      "ER": 640,
      "ĠThis": 641,
      "arge": 642,
      "not": 643,
      "iver": 644,
      "ittle": 645,
      "atter": 646,
      "Ġeach": 647,
      "cess": 648,
      "Ġmust": 649,
      "fect": 650,
      "Ġcap": 651,
      "Ġ(": 652,
      "ject": 653,
      "ning": 654,
      "com": 655,
      "Ġinst": 656,
      "Ġlong": 657,
      "ial": 658,
      "Ġeven": 659,
      "ever": 660,
      "Ġline": 661,
      "Ġreg": 662,
      "pr": 663,
      "ict": 664,
      "Ġord": 665,
      "ertain": 666,
      "oth": 667,
      "ural": 668,
      "rent": 669,
      "gan": 670,
      "Ġstr": 671,
      "aid": 672,
      "Ġsl": 673,
      "Ġthose": 674,
      "ick": 675,
      "Ġent": 676,
      "ĠRussi": 677,
      "ons": 678,
      "Ġfr": 679,
      "ise": 680,
      "Ġdiffe": 681,
      "ian": 682,
      "Ġapp": 683,
      "ĠBrit": 684,
      "Ġfar": 685,
      "hen": 686,
      "ank": 687,
      "Ġnum": 688,
      "igh": 689,
      "ark": 690,
      "Ġocc": 691,
      "ff": 692,
      "Ġgeneral": 693,
      "Ġpres": 694,
      "ited": 695,
      "Ġpoint": 696,
      "bl": 697,
      "Ġrel": 698,
      "Ġleft": 699,
      "Ġret": 700,
      "ves": 701,
      "Ġcount": 702,
      "Ġ3": 703,
      "Ġsee": 704,
      "ock": 705,
      "ivis": 706,
      "that": 707,
      "Ġlittle": 708,
      "Ġoff": 709,
      "Ġmil": 710,
      "Ġpe": 711,
      "up": 712,
      "ife": 713,
      "Ġposition": 714,
      "Ġnight": 715,
      "ates": 716,
      "Ġdid": 717,
      "Ġalso": 718,
      "Ġway": 719,
      "ĠU": 720,
      "Ġevery": 721,
      "Ġbelie": 722,
      "ĠAr": 723,
      "Ġfollow": 724,
      "Ġback": 725,
      "Ġattack": 726,
      "ix": 727,
      "inct": 728,
      "Ġbr": 729,
      "Ġsm": 730,
      "Ġmight": 731,
      "Ġass": 732,
      "ines": 733,
      "Ġlike": 734,
      "att": 735,
      "ness": 736,
      "Ġcol": 737,
      "ific": 738,
      "Ġroad": 739,
      "ause": 740,
      "end": 741,
      "Ġbl": 742,
      "ange": 743,
      "ng": 744,
      "ery": 745,
      "Ġfact": 746,
      "Ġmove": 747,
      "rig": 748,
      "Ġagainst": 749,
      "Ġfew": 750,
      "ĠK": 751,
      "its": 752,
      "row": 753,
      "ĠCh": 754,
      "Ġsur": 755,
      "most": 756,
      "Ġext": 757,
      "Ġforce": 758,
      "Ġgrou": 759,
      "Ġac": 760,
      "ntil": 761,
      "lection": 762,
      "Ġye": 763,
      "with": 764,
      "Ġend": 765,
      "Ġgo": 766,
      "ip": 767,
      "âĢľ": 768,
      "ĠOn": 769,
      "ently": 770,
      "Ġgr": 771,
      "Ġpass": 772,
      "ĠBritish": 773,
      "Ġter": 774,
      "Ġfound": 775,
      "ared": 776,
      "arch": 777,
      "Ġthree": 778,
      "oy": 779,
      "ower": 780,
      "ms": 781,
      "Ġwell": 782,
      "Ġ1915": 783,
      "Ġap": 784,
      "ssible": 785,
      "Ġlarge": 786,
      "ters": 787,
      "Ġsent": 788,
      "cre": 789,
      "ple": 790,
      "read": 791,
      "Ġmake": 792,
      "Ġfront": 793,
      "Ġser": 794,
      "ten": 795,
      "Ġinter": 796,
      "Ġwork": 797,
      "ĠWe": 798,
      "cept": 799,
      "Ġwithout": 800,
      "ĠSher": 801,
      "rench": 802,
      "und": 803,
      "ought": 804,
      "osed": 805,
      "Ġnatural": 806,
      "ual": 807,
      "ors": 808,
      "Ġnew": 809,
      "ility": 810,
      "ents": 811,
      "sh": 812,
      "Ġlife": 813,
      "Ġgiv": 814,
      "Ġtak": 815,
      "Ġdire": 816,
      "Ġimport": 817,
      "hing": 818,
      "me": 819,
      "Ġcross": 820,
      "Ġuntil": 821,
      "ccess": 822,
      "ondition": 823,
      "mer": 824,
      "ished": 825,
      "Ġhand": 826,
      "ild": 827,
      "Ġright": 828,
      "thing": 829,
      "Ġcertain": 830,
      "ured": 831,
      "veral": 832,
      "Ġduring": 833,
      "ered": 834,
      "ison": 835,
      "Ġown": 836,
      "Ġget": 837,
      "Ġdest": 838,
      "ath": 839,
      "Ġhowever": 840,
      "Ġseem": 841,
      "Ġplace": 842,
      "br": 843,
      "Ġwhile": 844,
      "ĠThey": 845,
      "ined": 846,
      "Ġind": 847,
      "ph": 848,
      "ivision": 849,
      "urg": 850,
      "but": 851,
      "ily": 852,
      "ather": 853,
      "Ġinf": 854,
      "aval": 855,
      "ense": 856,
      "road": 857,
      "ably": 858,
      "Ġgun": 859,
      "Ġcontin": 860,
      "Ġoffic": 861,
      "Ġmod": 862,
      "Ġyour": 863,
      "Ġwhole": 864,
      "ton": 865,
      "pect": 866,
      "less": 867,
      "Ġco": 868,
      "was": 869,
      "Ġnorth": 870,
      "imes": 871,
      "ches": 872,
      ".\"": 873,
      "Ġef": 874,
      "Ġless": 875,
      "les": 876,
      "Ġappe": 877,
      "ived": 878,
      "po": 879,
      "Ġstill": 880,
      "ner": 881,
      "Ġcountry": 882,
      "attle": 883,
      "Ġchar": 884,
      "Ġmiles": 885,
      "par": 886,
      "Ġpur": 887,
      "Ġexp": 888,
      "amp": 889,
      "iate": 890,
      "Ġsc": 891,
      "Ġanim": 892,
      "Ġstru": 893,
      "ts": 894,
      "Ġact": 895,
      "pend": 896,
      "ained": 897,
      "Ġcase": 898,
      "uth": 899,
      "Ġhaving": 900,
      "Ġsouth": 901,
      "ither": 902,
      "----": 903,
      "ĠY": 904,
      "Ġland": 905,
      "Ġart": 906,
      "son": 907,
      "ird": 908,
      "Ġsec": 909,
      "ĠThere": 910,
      "Ġseveral": 911,
      "ider": 912,
      "Ġprodu": 913,
      "ired": 914,
      "oub": 915,
      "ities": 916,
      "ĠAust": 917,
      "vil": 918,
      "ier": 919,
      "Ġmo": 920,
      "gg": 921,
      "tend": 922,
      "mediate": 923,
      "Ġdifferent": 924,
      "AN": 925,
      "Ġcar": 926,
      "Ġgood": 927,
      "ield": 928,
      "Ġnever": 929,
      "Ġcall": 930,
      "Ġsuccess": 931,
      "ink": 932,
      "vel": 933,
      "iew": 934,
      "air": 935,
      "Ġforms": 936,
      "Ġcorps": 937,
      "which": 938,
      "Ġcapt": 939,
      "Ġlast": 940,
      "Ġanother": 941,
      "ried": 942,
      "vent": 943,
      "Ġside": 944,
      "On": 945,
      "rest": 946,
      "âĢĿ": 947,
      "ee": 948,
      "Ġdown": 949,
      "Ġexist": 950,
      "overn": 951,
      "ident": 952,
      "Ġsmall": 953,
      "ctions": 954,
      "Ġem": 955,
      "Ġnumber": 956,
      "ĠGermany": 957,
      "Ġcondition": 958,
      "Ġop": 959,
      "Ġthus": 960,
      "Ġint": 961,
      "burg": 962,
      "roy": 963,
      "Ġdef": 964,
      "Ġtake": 965,
      "Ġboth": 966,
      "ceed": 967,
      "Ġsoon": 968,
      "ains": 969,
      "ĠAll": 970,
      "hy": 971,
      "Ġsaid": 972,
      "ified": 973,
      "HE": 974,
      "illery": 975,
      "ating": 976,
      "iod": 977,
      "Ġbo": 978,
      "mit": 979,
      "ached": 980,
      "Ġyet": 981,
      "Ġrep": 982,
      "In": 983,
      "Ġvariet": 984,
      "here": 985,
      "Ġalmost": 986,
      "Ġpresent": 987,
      "ened": 988,
      "ĠIf": 989,
      "ĠĠĠĠĠĠĠĠĠĠĠĠĠĠĠĠ": 990,
      "no": 991,
      "Ġorgan": 992,
      "Ġnear": 993,
      "Ġclose": 994,
      "Ġ18": 995,
      "ON": 996,
      "Th": 997,
      "ched": 998,
      "ting": 999,
      "ases": 1000,
      "af": 1001,
      "Ġval": 1002,
      "ople": 1003,
      "Ġjust": 1004,
      "EN": 1005,
      "ivid": 1006,
      "ficult": 1007,
      "ĠAt": 1008,
      "..": 1009,
      "aking": 1010,
      "Ġrec": 1011,
      "Ġread": 1012,
      "General": 1013,
      "empt": 1014,
      "oun": 1015,
      "Ġtrans": 1016,
      "ull": 1017,
      "ĠFrench": 1018,
      "arent": 1019,
      "anc": 1020,
      "Ġhigh": 1021,
      "Ġlook": 1022,
      "Ġgiven": 1023,
      "Ġdays": 1024,
      "ĠSherman": 1025,
      "Ġfour": 1026,
      "ĠTur": 1027,
      "Ġperiod": 1028,
      "_,": 1029,
      "wards": 1030,
      "ĠGermans": 1031,
      "Ġorder": 1032,
      "by": 1033,
      "Ġsim": 1034,
      "tern": 1035,
      "ĠAs": 1036,
      "ĠMr": 1037,
      "Ġworld": 1038,
      "idge": 1039,
      "Ġmor": 1040,
      "ssess": 1041,
      "Ġnecess": 1042,
      "Ġcome": 1043,
      "ways": 1044,
      "ell": 1045,
      "Ġconf": 1046,
      "âĢĶ,": 1047,
      "Ġcharact": 1048,
      "ouse": 1049,
      "Ġhere": 1050,
      "aces": 1051,
      "ousand": 1052,
      "Ġtaken": 1053,
      "Ġview": 1054,
      "avy": 1055,
      "Ġnature": 1056,
      "Ġguns": 1057,
      "Ġprob": 1058,
      "Ġkind": 1059,
      "Ġpossible": 1060,
      "selves": 1061,
      "ville": 1062,
      "Ġcame": 1063,
      "Ġriver": 1064,
      "ert": 1065,
      "Ġrece": 1066,
      "Ġrail": 1067,
      "Ġconsider": 1068,
      "Ġ'": 1069,
      "Ġbre": 1070,
      "iment": 1071,
      "Ġhold": 1072,
      "Ġeffect": 1073,
      "ale": 1074,
      "ason": 1075,
      "ĠUn": 1076,
      "Ġdestroy": 1077,
      "Ġold": 1078,
      "ular": 1079,
      "ances": 1080,
      "gether": 1081,
      "undred": 1082,
      "Ġobject": 1083,
      "ides": 1084,
      "Ġke": 1085,
      "from": 1086,
      "Ġmain": 1087,
      "avalry": 1088,
      "ra": 1089,
      "It": 1090,
      "lo": 1091,
      "uro": 1092,
      "Ġbattle": 1093,
      "Ġplants": 1094,
      "Ġoften": 1095,
      "itu": 1096,
      "thern": 1097,
      "Ġwithin": 1098,
      "eds": 1099,
      "urope": 1100,
      "ised": 1101,
      "Ġyears": 1102,
      "enty": 1103,
      "Ġuse": 1104,
      "Ġcannot": 1105,
      "Ġthough": 1106,
      "Ġconst": 1107,
      "Ġturn": 1108,
      "Ġselection": 1109,
      "velop": 1110,
      "Ġste": 1111,
      "Ġdivision": 1112,
      "Ġdoub": 1113,
      "ĠRussian": 1114,
      "Ġsay": 1115,
      "arr": 1116,
      "comm": 1117,
      "Ġanimals": 1118,
      "TER": 1119,
      "Ġfire": 1120,
      "ledge": 1121,
      "ins": 1122,
      "inci": 1123,
      "Ġcour": 1124,
      "Ġdel": 1125,
      "Ġloss": 1126,
      "Ġdifficult": 1127,
      "Ġbecome": 1128,
      "ĠRiver": 1129,
      "Ġreturn": 1130,
      "ene": 1131,
      "Ġfight": 1132,
      "Ġhard": 1133,
      "olog": 1134,
      "lies": 1135,
      "Ġmon": 1136,
      "Ġmind": 1137,
      "Ġstrong": 1138,
      "app": 1139,
      "bers": 1140,
      "ient": 1141,
      "Ġfind": 1142,
      "Ġshall": 1143,
      "Ġartillery": 1144,
      "Ġvarieties": 1145,
      "ape": 1146,
      "Ġopp": 1147,
      "Ġcomple": 1148,
      "side": 1149,
      "Ġeng": 1150,
      "Ġtru": 1151,
      "cture": 1152,
      "atch": 1153,
      "Ġtook": 1154,
      "dered": 1155,
      "Ġdisc": 1156,
      "ern": 1157,
      "any": 1158,
      "Ġhead": 1159,
      "hab": 1160,
      "raw": 1161,
      "Ġfort": 1162,
      "Ġgu": 1163,
      "part": 1164,
      "ĠAustri": 1165,
      "enc": 1166,
      "Ġnor": 1167,
      "Ġtherefore": 1168,
      "ser": 1169,
      "illed": 1170,
      "Ġshow": 1171,
      "AP": 1172,
      "Ġfur": 1173,
      "ists": 1174,
      "ĠFor": 1175,
      "Ġev": 1176,
      "Ġever": 1177,
      "Ġcommon": 1178,
      "Ġthought": 1179,
      "Ġonce": 1180,
      "Ġexcept": 1181,
      "IN": 1182,
      "Ġlet": 1183,
      "ĠOF": 1184,
      "Ġcontinu": 1185,
      "ipp": 1186,
      "Ġgener": 1187,
      "ĠMay": 1188,
      "Ġaway": 1189,
      "Ġsix": 1190,
      "term": 1191,
      "ember": 1192,
      "Ġoccup": 1193,
      "Ġpossess": 1194,
      "Ġmorning": 1195,
      "omet": 1196,
      "Ġstart": 1197,
      "gr": 1198,
      "Ġstre": 1199,
      "Ġarri": 1200,
      "Ġalong": 1201,
      "ats": 1202,
      "ief": 1203,
      "peri": 1204,
      "have": 1205,
      "Ġpeople": 1206,
      "Ġset": 1207,
      "Ġput": 1208,
      "Ġrest": 1209,
      "âĢĻ": 1210,
      "Ġbecause": 1211,
      "Ġcavalry": 1212,
      "ĠSe": 1213,
      "ĠItal": 1214,
      "Ġwater": 1215,
      "Ġ4": 1216,
      "rought": 1217,
      "Ġground": 1218,
      "AL": 1219,
      "ew": 1220,
      "cent": 1221,
      "oh": 1222,
      "Ġfin": 1223,
      "Ġlines": 1224,
      "ung": 1225,
      "ubl": 1226,
      "Ġabove": 1227,
      "Ġadvance": 1228,
      "Ġes": 1229,
      "alf": 1230,
      "Ġthousand": 1231,
      "Ġhour": 1232,
      "Ġinde": 1233,
      "ley": 1234,
      "enn": 1235,
      "Ġcalled": 1236,
      "ince": 1237,
      "ative": 1238,
      "Ġcle": 1239,
      "Ġhundred": 1240,
      "meric": 1241,
      "Ġeast": 1242,
      "ĠWhen": 1243,
      "Ġadd": 1244,
      "force": 1245,
      "Ġimportant": 1246,
      "Ġtoo": 1247,
      "Ġattempt": 1248,
      "val": 1249,
      "see": 1250,
      "ĠEurope": 1251,
      "Ġknown": 1252,
      "Ġalways": 1253,
      "form": 1254,
      "CH": 1255,
      "aus": 1256,
      "xt": 1257,
      "Ġforces": 1258,
      "Ġheld": 1259,
      "sequ": 1260,
      "ĠTHE": 1261,
      "though": 1262,
      "were": 1263,
      "Ġbelieve": 1264,
      "Ġdoubt": 1265,
      "ometimes": 1266,
      "German": 1267,
      "Ġcases": 1268,
      "Ġmount": 1269,
      "ody": 1270,
      "rence": 1271,
      "Ġoper": 1272,
      "Ġinv": 1273,
      "ash": 1274,
      "Ġmeans": 1275,
      "Ġdistinct": 1276,
      "ready": 1277,
      "their": 1278,
      "overed": 1279,
      "Ġresult": 1280,
      "gin": 1281,
      "ĠArmy": 1282,
      ",\"": 1283,
      "Ġarm": 1284,
      "Ġpower": 1285,
      "Ġeither": 1286,
      "ob": 1287,
      "Ġgive": 1288,
      "Ġword": 1289,
      "OR": 1290,
      "den": 1291,
      ".,": 1292,
      "cri": 1293,
      "had": 1294,
      "ially": 1295,
      "oint": 1296,
      "position": 1297,
      "eng": 1298,
      "ĠAl": 1299,
      "Ġconditions": 1300,
      "Ġdri": 1301,
      "Ġproper": 1302,
      "Ġclass": 1303,
      "Ġparts": 1304,
      "Ġprinci": 1305,
      "overnment": 1306,
      "imate": 1307,
      "Ġnearly": 1308,
      "ages": 1309,
      "new": 1310,
      "rigade": 1311,
      "ĠâĢľ": 1312,
      "ians": 1313,
      "Ġgot": 1314,
      "Ġgenerally": 1315,
      "Ã¦": 1316,
      "Ġpers": 1317,
      "Ġlight": 1318,
      "Ġtrue": 1319,
      "Ġwest": 1320,
      "Ġdet": 1321,
      "ute": 1322,
      "Ġnecessary": 1323,
      "Ġsing": 1324,
      "Ġknowledge": 1325,
      "mar": 1326,
      "Ġte": 1327,
      "Ġtogether": 1328,
      "aut": 1329,
      "Ġacqu": 1330,
      "AT": 1331,
      "Ġfall": 1332,
      "Ġgl": 1333,
      "pose": 1334,
      "Ġcut": 1335,
      "ĠWh": 1336,
      "fer": 1337,
      "Ġcamp": 1338,
      "clud": 1339,
      "bel": 1340,
      "Ġofficers": 1341,
      "spec": 1342,
      "owers": 1343,
      "ets": 1344,
      "ĠRussians": 1345,
      "Ġcent": 1346,
      "Ġeas": 1347,
      "aving": 1348,
      "Ġfeel": 1349,
      "ually": 1350,
      "Ġ5": 1351,
      "lect": 1352,
      "habit": 1353,
      "tr": 1354,
      "Ġbrought": 1355,
      "Ġexpl": 1356,
      "Ġsecond": 1357,
      "ffic": 1358,
      "Ġequ": 1359,
      "iving": 1360,
      "Ġfore": 1361,
      "Ġdeg": 1362,
      "ized": 1363,
      "men": 1364,
      "pre": 1365,
      "Ġest": 1366,
      "there": 1367,
      "ĠCon": 1368,
      "Ġru": 1369,
      "Ġdevelop": 1370,
      "Ġstructure": 1371,
      "Ġbest": 1372,
      "ĠAnd": 1373,
      "Ġseen": 1374,
      "ral": 1375,
      "right": 1376,
      "ification": 1377,
      "ked": 1378,
      "arg": 1379,
      "Ġear": 1380,
      "cend": 1381,
      "ott": 1382,
      "stand": 1383,
      "Ġformer": 1384,
      "Ġhor": 1385,
      "Ġey": 1386,
      "estic": 1387,
      "Ġrun": 1388,
      "aps": 1389,
      "aged": 1390,
      "ips": 1391,
      "rel": 1392,
      "Ġspe": 1393,
      "asion": 1394,
      "bor": 1395,
      "aced": 1396,
      "Ġwent": 1397,
      "Ġrequ": 1398,
      "Ġreport": 1399,
      "ĠAmeric": 1400,
      "ĠEng": 1401,
      "Ġsy": 1402,
      "ased": 1403,
      "Ġdom": 1404,
      "renches": 1405,
      "Ġentire": 1406,
      "Ġappear": 1407,
      "ug": 1408,
      "idan": 1409,
      "Ġordered": 1410,
      "Ġprov": 1411,
      "Ġwhether": 1412,
      "ault": 1413,
      "ope": 1414,
      "Ġreason": 1415,
      "Ġnothing": 1416,
      "Ġmanner": 1417,
      "Ġcaptured": 1418,
      "Ġwide": 1419,
      "Ġfurther": 1420,
      "Ġsaw": 1421,
      "Ġmar": 1422,
      "Ġel": 1423,
      "ards": 1424,
      "rem": 1425,
      "Ġsense": 1426,
      "rown": 1427,
      "Ġchang": 1428,
      "Ġthemselves": 1429,
      "Ġorders": 1430,
      "Ġcourse": 1431,
      "antry": 1432,
      "Ġthings": 1433,
      "Ġindivid": 1434,
      "II": 1435,
      "Ġ6": 1436,
      "Ġshort": 1437,
      "ĠFr": 1438,
      "ission": 1439,
      "Ġpar": 1440,
      "Ġreached": 1441,
      "ĠSouth": 1442,
      "Ġlead": 1443,
      "Ġimmediate": 1444,
      "rew": 1445,
      "ĠCol": 1446,
      "Ġothers": 1447,
      "Ġyoung": 1448,
      "isoners": 1449,
      "fort": 1450,
      "Ġfive": 1451,
      "Ġname": 1452,
      "Ġnext": 1453,
      "Ġmet": 1454,
      "ĠBe": 1455,
      "Ġleast": 1456,
      "ounded": 1457,
      "ĠStates": 1458,
      "Ġslight": 1459,
      "ned": 1460,
      "uthor": 1461,
      "Ġ|": 1462,
      "Ġsk": 1463,
      "Ġdone": 1464,
      "Ġthink": 1465,
      "Ġlaw": 1466,
      "omb": 1467,
      "CHAP": 1468,
      "hil": 1469,
      "Ġdoes": 1470,
      "wo": 1471,
      "ided": 1472,
      "CHAPTER": 1473,
      "bed": 1474,
      "Ġche": 1475,
      "Ġmarch": 1476,
      "ention": 1477,
      "Ġlatter": 1478,
      "Ġstand": 1479,
      "Ġhimself": 1480,
      "ivers": 1481,
      "orm": 1482,
      "aph": 1483,
      "terest": 1484,
      "ensive": 1485,
      "irc": 1486,
      "Ġhab": 1487,
      "Ġhapp": 1488,
      "Ġtwenty": 1489,
      "onel": 1490,
      "ondon": 1491,
      "ĠLee": 1492,
      "iers": 1493,
      "ling": 1494,
      "vers": 1495,
      "ives": 1496,
      "Ġfollowing": 1497,
      "Ġmoved": 1498,
      "li": 1499,
      "lled": 1500,
      "aim": 1501,
      "Ġfam": 1502,
      "riend": 1503,
      "Ġmyself": 1504,
      "Ġprobably": 1505,
      "uck": 1506,
      "ĠThese": 1507,
      "Ġdirect": 1508,
      "Ġheavy": 1509,
      "Ġalready": 1510,
      "AR": 1511,
      "resent": 1512,
      "Ġused": 1513,
      "ize": 1514,
      "ES": 1515,
      "ible": 1516,
      "know": 1517,
      "this": 1518,
      "tained": 1519,
      "Ġtown": 1520,
      "ures": 1521,
      "Ġpartic": 1522,
      "Ġsubject": 1523,
      "ohn": 1524,
      "ped": 1525,
      "Ġhalf": 1526,
      "une": 1527,
      "they": 1528,
      "idence": 1529,
      "Ġbro": 1530,
      "Ġfav": 1531,
      "Ġlost": 1532,
      "Ġamong": 1533,
      "Ġreceived": 1534,
      "Ġtrenches": 1535,
      "Ġsea": 1536,
      "antage": 1537,
      "Ġfighting": 1538,
      "aign": 1539,
      "anced": 1540,
      "ged": 1541,
      "Ġbird": 1542,
      "Ġcity": 1543,
      "Ġtowards": 1544,
      "Ġearly": 1545,
      "Ġrailroad": 1546,
      "eder": 1547,
      "Ġcharacter": 1548,
      "But": 1549,
      "ration": 1550,
      "Ġincre": 1551,
      "sem": 1552,
      "Ġdec": 1553,
      "Ġvis": 1554,
      "Ġmonth": 1555,
      "would": 1556,
      "Ġable": 1557,
      "ric": 1558,
      "ret": 1559,
      "ĠTo": 1560,
      "ames": 1561,
      "Ġsold": 1562,
      "Ġopen": 1563,
      "Ġcur": 1564,
      "ĠNorth": 1565,
      "lands": 1566,
      "ency": 1567,
      "ev": 1568,
      "where": 1569,
      "ĠCom": 1570,
      "Ġmovement": 1571,
      "ler": 1572,
      "reme": 1573,
      "cap": 1574,
      "itary": 1575,
      "ution": 1576,
      "ribut": 1577,
      "Ġdegree": 1578,
      "Ġfield": 1579,
      "species": 1580,
      "Ġsum": 1581,
      "ĠWar": 1582,
      "iness": 1583,
      "Ġten": 1584,
      "Ġprog": 1585,
      "Ġchild": 1586,
      "ook": 1587,
      "Ġwrit": 1588,
      "Ġfull": 1589,
      "Ġreal": 1590,
      "Ġfeet": 1591,
      "Ġquest": 1592,
      "Ġsupplies": 1593,
      "inter": 1594,
      "Ġmom": 1595,
      "Ġmatter": 1596,
      "ĠAf": 1597,
      "Ġbecame": 1598,
      "tended": 1599,
      "Ġmach": 1600,
      "pected": 1601,
      "ety": 1602,
      "ĠSo": 1603,
      "ording": 1604,
      "ib": 1605,
      "io": 1606,
      "Ġregard": 1607,
      "ah": 1608,
      "Ġwant": 1609,
      "ane": 1610,
      "Ġref": 1611,
      "Ġitself": 1612,
      "Ġann": 1613,
      "Ġstate": 1614,
      "ennes": 1615,
      "co": 1616,
      "sp": 1617,
      "Ġpubl": 1618,
      "sect": 1619,
      "Ġacross": 1620,
      "Ġcrossed": 1621,
      "Ġrear": 1622,
      "Ġstri": 1623,
      "Ġamount": 1624,
      "Ġprisoners": 1625,
      "Ġinstance": 1626,
      "Ġgrad": 1627,
      "aj": 1628,
      "king": 1629,
      "Ġ7": 1630,
      "Ġinhabit": 1631,
      "Ġperfect": 1632,
      "Ġdisp": 1633,
      "Ġappro": 1634,
      "possible": 1635,
      "Ġexpress": 1636,
      "been": 1637,
      "Ġquite": 1638,
      ".âĢĿ": 1639,
      "some": 1640,
      "enced": 1641,
      "ĠCor": 1642,
      "Ġgreater": 1643,
      "day": 1644,
      "dif": 1645,
      "gans": 1646,
      "Ġsou": 1647,
      "Ġsometimes": 1648,
      "Ġmis": 1649,
      "owed": 1650,
      "Ġsomething": 1651,
      "ĠNew": 1652,
      "mond": 1653,
      "ism": 1654,
      "Ġlay": 1655,
      "Ġsupport": 1656,
      "ennessee": 1657,
      "ges": 1658,
      "lls": 1659,
      "uman": 1660,
      "ries": 1661,
      "Ġconne": 1662,
      "ĠMarch": 1663,
      "teen": 1664,
      "Ġjud": 1665,
      "Ġoccur": 1666,
      "Ġarmies": 1667,
      "Ch": 1668,
      "aff": 1669,
      "vice": 1670,
      "Ġide": 1671,
      "Ġauthor": 1672,
      "Ġpay": 1673,
      "Ġdefe": 1674,
      "Ġremain": 1675,
      "pril": 1676,
      "arked": 1677,
      "eb": 1678,
      "rees": 1679,
      "ination": 1680,
      "aves": 1681,
      "Ġretreat": 1682,
      "kish": 1683,
      "Ġsil": 1684,
      "Ġmeet": 1685,
      "ĠLondon": 1686,
      "Ġcommun": 1687,
      "iously": 1688,
      "Ġaction": 1689,
      "Ġhy": 1690,
      "icks": 1691,
      "Ġforward": 1692,
      "fully": 1693,
      "ef": 1694,
      "inary": 1695,
      "stem": 1696,
      "ĠMc": 1697,
      "ously": 1698,
      "Ġpurpose": 1699,
      "),": 1700,
      "Ġtend": 1701,
      "ata": 1702,
      "Ġbu": 1703,
      "ann": 1704,
      "ically": 1705,
      "irl": 1706,
      "ĠAn": 1707,
      "Ġprote": 1708,
      "elt": 1709,
      "round": 1710,
      "ĠJohn": 1711,
      "brid": 1712,
      "Ġfriend": 1713,
      "Ġmin": 1714,
      "Ġmaking": 1715,
      "aring": 1716,
      "ulation": 1717,
      "Ġfollowed": 1718,
      "feder": 1719,
      "his": 1720,
      "Ġfood": 1721,
      "ritory": 1722,
      "Ġbetter": 1723,
      "Ġsingle": 1724,
      "arters": 1725,
      "ilar": 1726,
      "Ġconc": 1727,
      "Ġpoints": 1728,
      "This": 1729,
      "Ġtransport": 1730,
      "Ġoccupied": 1731,
      "Ġdomestic": 1732,
      "erous": 1733,
      "Ġsince": 1734,
      "ĠMiss": 1735,
      "Ġimportance": 1736,
      "ceeded": 1737,
      "ature": 1738,
      "Ġreach": 1739,
      "Ġheard": 1740,
      "Ġenough": 1741,
      "Ġabs": 1742,
      "Ġdescend": 1743,
      "Ġrespect": 1744,
      "Ġseems": 1745,
      "dis": 1746,
      "haps": 1747,
      "stru": 1748,
      ".âĢĶ": 1749,
      "ec": 1750,
      "lish": 1751,
      "ital": 1752,
      "Ġallied": 1753,
      "az": 1754,
      "lected": 1755,
      "Ġvict": 1756,
      "resident": 1757,
      "Ġhands": 1758,
      "wor": 1759,
      "Ġimp": 1760,
      "Ġseemed": 1761,
      "Ġinfantry": 1762,
      "Ġinterest": 1763,
      "Ġprom": 1764,
      "Ġwee": 1765,
      "ĠHis": 1766,
      "Ġsw": 1767,
      "Ġpri": 1768,
      "ĠShe": 1769,
      "clus": 1770,
      "He": 1771,
      "mith": 1772,
      "unt": 1773,
      "Ġpol": 1774,
      "Ġeight": 1775,
      "Ġrein": 1776,
      "Ġgave": 1777,
      "Ġsuffic": 1778,
      "ĠGr": 1779,
      "appe": 1780,
      "ĠFort": 1781,
      "Ġcarried": 1782,
      "Ġmoment": 1783,
      "inite": 1784,
      "reg": 1785,
      "ston": 1786,
      "Ġlim": 1787,
      "Ġge": 1788,
      "ĠĠĠĠĠĠ": 1789,
      "We": 1790,
      "Ġav": 1791,
      "Ġdem": 1792,
      "ational": 1793,
      "Ġsend": 1794,
      "Ġvarious": 1795,
      "uals": 1796,
      "ering": 1797,
      "Ġsepar": 1798,
      "ĠBy": 1799,
      "Ġadvantage": 1800,
      "Ġassault": 1801,
      "ĠUnited": 1802,
      "ION": 1803,
      "fl": 1804,
      "yond": 1805,
      "Ġcause": 1806,
      "Ġcompe": 1807,
      "apter": 1808,
      "Ġaround": 1809,
      "Ġobser": 1810,
      "Ġcampaign": 1811,
      "gu": 1812,
      "Ġ$": 1813,
      "Ġfelt": 1814,
      "them": 1815,
      "ĠThus": 1816,
      "hys": 1817,
      "Ġcr": 1818,
      "ĠPr": 1819,
      "cons": 1820,
      "Ġroads": 1821,
      "Ġclosely": 1822,
      "under": 1823,
      "Ġcare": 1824,
      "Ġbegan": 1825,
      "opp": 1826,
      "sw": 1827,
      "will": 1828,
      "str": 1829,
      "Ġexam": 1830,
      "akes": 1831,
      "rences": 1832,
      "Ġformed": 1833,
      "issipp": 1834,
      "Ġextreme": 1835,
      "ĠSheridan": 1836,
      "issippi": 1837,
      "bo": 1838,
      "vari": 1839,
      "what": 1840,
      "Ġpursu": 1841,
      "--------": 1842,
      "Ġcontinued": 1843,
      "Ġbeh": 1844,
      "Ġaccom": 1845,
      "Ġgoing": 1846,
      "ashing": 1847,
      "ĠInd": 1848,
      "ability": 1849,
      "ately": 1850,
      "Ġplaces": 1851,
      "ajor": 1852,
      "Ġbody": 1853,
      "Ġmem": 1854,
      "Ġknew": 1855,
      "Ġslow": 1856,
      "Ġkept": 1857,
      "Ġbomb": 1858,
      "Ġparent": 1859,
      "Ġdeterm": 1860,
      "exic": 1861,
      "Ġbelief": 1862,
      "ys": 1863,
      "Ġfif": 1864,
      "Ġhome": 1865,
      "ichmond": 1866,
      "cont": 1867,
      "Ġbelong": 1868,
      "Ġperson": 1869,
      "ĠFrance": 1870,
      "ndered": 1871,
      "Ġport": 1872,
      "apid": 1873,
      "Ġdistance": 1874,
      "ĠWith": 1875,
      "ĠOr": 1876,
      "Ġpassed": 1877,
      "Ġmachine": 1878,
      "col": 1879,
      "ĠApril": 1880,
      "Ġfacts": 1881,
      "mitted": 1882,
      "Ġbirds": 1883,
      "pos": 1884,
      "Ġwhy": 1885,
      "unition": 1886,
      "Ġmere": 1887,
      "Ġdro": 1888,
      "ford": 1889,
      "Ġdescri": 1890,
      "cul": 1891,
      "Ġwood": 1892,
      "Ġwounded": 1893,
      "anks": 1894,
      "Ġwhom": 1895,
      "Ġexperi": 1896,
      "ĠMy": 1897,
      "reng": 1898,
      "ssib": 1899,
      "Ġcomplete": 1900,
      "ken": 1901,
      "wise": 1902,
      "ĠTennessee": 1903,
      "well": 1904,
      "Ġarrived": 1905,
      "icksburg": 1906,
      "_.": 1907,
      "ub": 1908,
      "uly": 1909,
      "Ġ8": 1910,
      "supp": 1911,
      "Ġinstru": 1912,
      "ĠTurkish": 1913,
      "get": 1914,
      "Ġcirc": 1915,
      "ush": 1916,
      "Ġ15": 1917,
      "ĠAllies": 1918,
      "Wh": 1919,
      "Ġorgans": 1920,
      "Ġsun": 1921,
      "ĠGe": 1922,
      "osop": 1923,
      "Ġ11": 1924,
      "Ġchange": 1925,
      "Ġaccount": 1926,
      "Ġproduced": 1927,
      "Ġstarted": 1928,
      "forcements": 1929,
      "IT": 1930,
      "count": 1931,
      "Ġcaus": 1932,
      "Ġ10": 1933,
      "ĠRo": 1934,
      "Ġalone": 1935,
      "Ġsubmar": 1936,
      "Ġdestroyed": 1937,
      "ax": 1938,
      "des": 1939,
      "dden": 1940,
      "pond": 1941,
      "Ġ9": 1942,
      "ences": 1943,
      "orn": 1944,
      "Ġele": 1945,
      "irm": 1946,
      "umn": 1947,
      "clock": 1948,
      "Ġterritory": 1949,
      "Ġcreat": 1950,
      "Ġkilled": 1951,
      "Ġoccasion": 1952,
      "sl": 1953,
      "requ": 1954,
      "alle": 1955,
      "Ġlow": 1956,
      "Ġpositions": 1957,
      "Ġcarry": 1958,
      "Ġgenera": 1959,
      "LE": 1960,
      "Ġphys": 1961,
      "ement": 1962,
      "ruary": 1963,
      "Ġchief": 1964,
      "Ġplay": 1965,
      "ebruary": 1966,
      "Ġtimes": 1967,
      "Ġins": 1968,
      "Ġgen": 1969,
      "iles": 1970,
      "fected": 1971,
      "Ġadm": 1972,
      "ffort": 1973,
      "rigin": 1974,
      "Ġeyes": 1975,
      "der": 1976,
      "iar": 1977,
      "Ġfail": 1978,
      "Ġinsect": 1979,
      "Ġsuc": 1980,
      "isted": 1981,
      "Ġjo": 1982,
      "Ġsurre": 1983,
      "Ġsystem": 1984,
      "Ġquestion": 1985,
      "che": 1986,
      "atic": 1987,
      "Ġdraw": 1988,
      "Ġwhose": 1989,
      "Ġ14": 1990,
      "duced": 1991,
      "command": 1992,
      "Ġair": 1993,
      "reet": 1994,
      "Ġhouse": 1995,
      "Ġthing": 1996,
      "ĠPresident": 1997,
      "Ġtruth": 1998,
      "Ġmodified": 1999,
      "Ġpossession": 2000,
      "Ġfert": 2001,
      "Ġple": 2002,
      "Ġgirl": 2003,
      "istance": 2004,
      "tered": 2005,
      "Ġclaim": 2006,
      "ivisions": 2007,
      "Ġgroups": 2008,
      "Ġdirected": 2009,
      "Ġready": 2010,
      "Ġimmediately": 2011,
      "As": 2012,
      "use": 2013,
      "ising": 2014,
      "Ġlove": 2015,
      "Ġ12": 2016,
      "ume": 2017,
      "reaty": 2018,
      "Ġadvanced": 2019,
      "Ġterms": 2020,
      "ĠYou": 2021,
      "ĠAustrian": 2022,
      "sequently": 2023,
      "ength": 2024,
      "ĠConfeder": 2025,
      "ige": 2026,
      "vere": 2027,
      "ĠMexic": 2028,
      "Ġdepend": 2029,
      "ĠPe": 2030,
      "conom": 2031,
      "arrison": 2032,
      "GEN": 2033,
      "more": 2034,
      "ored": 2035,
      "occ": 2036,
      "Ġswe": 2037,
      "ales": 2038,
      "ster": 2039,
      "ĠThen": 2040,
      "Ġplan": 2041,
      "ĠTurks": 2042,
      "Ġhours": 2043,
      "Ġmountain": 2044,
      "'t": 2045,
      "ina": 2046,
      "ano": 2047,
      "Ġpap": 2048,
      "alt": 2049,
      "ĠSmith": 2050,
      "Ġrank": 2051,
      "Ġvalue": 2052,
      "Ġkeep": 2053,
      "Ġhybrid": 2054,
      "lying": 2055,
      "ption": 2056,
      "There": 2057,
      "num": 2058,
      "Ġsitu": 2059,
      "Ġbatter": 2060,
      "arm": 2061,
      "Ġheart": 2062,
      "ĠRichmond": 2063,
      "off": 2064,
      "ĠDe": 2065,
      "Ġevening": 2066,
      "Ġcommunic": 2067,
      "Ġsides": 2068,
      "ĠCar": 2069,
      "after": 2070,
      "Ġprinciple": 2071,
      "Ġacquain": 2072,
      "ĠAmerica": 2073,
      "ĠComm": 2074,
      "Ġwond": 2075,
      "ices": 2076,
      "itz": 2077,
      "oured": 2078,
      "Ġlater": 2079,
      "Ġrapid": 2080,
      "Ġimpro": 2081,
      "formed": 2082,
      "Ġinstinct": 2083,
      "Ġcharacters": 2084,
      "ological": 2085,
      "Ġcover": 2086,
      "Ġwind": 2087,
      "amm": 2088,
      "Ġfell": 2089,
      "arily": 2090,
      "._": 2091,
      "Ġir": 2092,
      "Ġorigin": 2093,
      "Ġmater": 2094,
      "Ġhig": 2095,
      "Ġneed": 2096,
      "agg": 2097,
      "Ġunderstand": 2098,
      "attack": 2099,
      "hood": 2100,
      "ring": 2101,
      "Ġfree": 2102,
      "Ġpie": 2103,
      "alk": 2104,
      "Ġbeyond": 2105,
      "ams": 2106,
      "ĠĠĠĠĠ": 2107,
      "atever": 2108,
      "ively": 2109,
      "can": 2110,
      "fact": 2111,
      "iments": 2112,
      "Ġforced": 2113,
      "ĠBl": 2114,
      "ruction": 2115,
      "ĠNo": 2116,
      "Ġaff": 2117,
      "like": 2118,
      "Ġbatt": 2119,
      "Ġsudden": 2120,
      "ĠBr": 2121,
      "ieut": 2122,
      "ĠFrom": 2123,
      "Ġworks": 2124,
      "Ġperhaps": 2125,
      "Ġrelation": 2126,
      "ounter": 2127,
      "Ġsimilar": 2128,
      "hilosop": 2129,
      "Ġbehind": 2130,
      "rict": 2131,
      "atural": 2132,
      "Ġarms": 2133,
      "Ġanything": 2134,
      "ĠJune": 2135,
      "Ġpress": 2136,
      "Ġcolour": 2137,
      "Ġyear": 2138,
      "Ġservice": 2139,
      "Ġtaking": 2140,
      "Ġguard": 2141,
      "ĠItalian": 2142,
      "Ġoperations": 2143,
      "Ġfather": 2144,
      "Ġhope": 2145,
      "Ġdark": 2146,
      "Ġbeaut": 2147,
      "ushed": 2148,
      "Ġapparent": 2149,
      "Ġmilitary": 2150,
      "Ġdifficulty": 2151,
      "ashington": 2152,
      "UR": 2153,
      "Ġfle": 2154,
      "Ġhuman": 2155,
      "Ġliving": 2156,
      "Ġrather": 2157,
      "Ġhardly": 2158,
      "fo": 2159,
      "Ġster": 2160,
      "Ġbar": 2161,
      "Ġlength": 2162,
      "Ġvol": 2163,
      "umst": 2164,
      "sub": 2165,
      "Ġnumbers": 2166,
      "ĠX": 2167,
      "Ġfut": 2168,
      "Ġmus": 2169,
      "Ġinclud": 2170,
      "Ġbegin": 2171,
      "ote": 2172,
      "cho": 2173,
      "fered": 2174,
      "resh": 2175,
      "ples": 2176,
      "ney": 2177,
      "cient": 2178,
      "anger": 2179,
      "Ġbridge": 2180,
      "Ġcrossing": 2181,
      "Ġconsiderable": 2182,
      "ĠMississippi": 2183,
      "bet": 2184,
      "how": 2185,
      "ĠFebruary": 2186,
      "ĠUnion": 2187,
      "Ġsteam": 2188,
      "Ġwords": 2189,
      "ĠEngland": 2190,
      "great": 2191,
      "night": 2192,
      "uss": 2193,
      "ĠBrigade": 2194,
      "Ġremained": 2195,
      "Ġindepend": 2196,
      "Ġdeveloped": 2197,
      "Ġill": 2198,
      "Ġaw": 2199,
      "Ġpop": 2200,
      "quarters": 2201,
      "ĠJuly": 2202,
      "Ġpract": 2203,
      "ERAL": 2204,
      "two": 2205,
      "Ġtri": 2206,
      "Ġbeings": 2207,
      "Ġstreng": 2208,
      "ĠSome": 2209,
      "Ġexpected": 2210,
      "ĠWest": 2211,
      "ggle": 2212,
      "Ġmonths": 2213,
      "Ġpublic": 2214,
      "west": 2215,
      "Ġful": 2216,
      "Ġmid": 2217,
      "Ġdam": 2218,
      "Ġalthough": 2219,
      "Ġlear": 2220,
      "ifications": 2221,
      "Ġemb": 2222,
      "cr": 2223,
      "cal": 2224,
      "mber": 2225,
      "aken": 2226,
      "Ġprof": 2227,
      "who": 2228,
      "certain": 2229,
      "isation": 2230,
      "adv": 2231,
      "Ġeffort": 2232,
      "pper": 2233,
      "pecially": 2234,
      "Ġinfl": 2235,
      "Ġturned": 2236,
      "Ġindividuals": 2237,
      "Ġprogress": 2238,
      "IS": 2239,
      "When": 2240,
      "ics": 2241,
      "Ġresem": 2242,
      "Ġleave": 2243,
      "respond": 2244,
      "Ġengaged": 2245,
      "Ġbank": 2246,
      "Ġfig": 2247,
      "Ġdr": 2248,
      "Ġround": 2249,
      "Ġplaced": 2250,
      "oga": 2251,
      "Ġcolumn": 2252,
      "Ġexistence": 2253,
      "Ġ186": 2254,
      "general": 2255,
      "oice": 2256,
      "Ġut": 2257,
      "Ġsign": 2258,
      "arrow": 2259,
      "Ġpast": 2260,
      "Ġphilosop": 2261,
      "ishing": 2262,
      "Ġimm": 2263,
      "attano": 2264,
      "Ġvalley": 2265,
      "Ġparticular": 2266,
      "Ġgenus": 2267,
      "attanooga": 2268,
      "At": 2269,
      "ead": 2270,
      "go": 2271,
      "Ġtheory": 2272,
      "Ġsens": 2273,
      "enemy": 2274,
      "Ġhist": 2275,
      "aded": 2276,
      "Ġgrow": 2277,
      "Ġasked": 2278,
      "ores": 2279,
      "ested": 2280,
      "Ġrange": 2281,
      "ĠPoint": 2282,
      "Ġspecial": 2283,
      "Ġinhabitants": 2284,
      "Ġidea": 2285,
      "ait": 2286,
      "esides": 2287,
      "aster": 2288,
      "ĠBel": 2289,
      "ula": 2290,
      "Ġcommanded": 2291,
      "pring": 2292,
      "Ġpeace": 2293,
      "Ġofficer": 2294,
      "Ġrepresent": 2295,
      "Ġproperty": 2296,
      "Ġwidely": 2297,
      "Ġbombard": 2298,
      "IC": 2299,
      "stant": 2300,
      "Ġwhite": 2301,
      "iring": 2302,
      "Ġroom": 2303,
      "Ġprevent": 2304,
      "Ġcommanding": 2305,
      "produ": 2306,
      "15": 2307,
      "Sher": 2308,
      "Ġinher": 2309,
      "let": 2310,
      "Ġlab": 2311,
      "omas": 2312,
      "Ġ17": 2313,
      "Ġintermediate": 2314,
      "Ġhorse": 2315,
      "GENERAL": 2316,
      "St": 2317,
      "ior": 2318,
      "Ġtoward": 2319,
      "Ġreally": 2320,
      "irty": 2321,
      "ify": 2322,
      "Ġimpossible": 2323,
      "Ġflank": 2324,
      "Ġcapture": 2325,
      "itude": 2326,
      "Ġelse": 2327,
      "ĠAfter": 2328,
      "ĠGeor": 2329,
      "Ġphysical": 2330,
      "sc": 2331,
      "vol": 2332,
      "Ġed": 2333,
      "Ġdivisions": 2334,
      "Ġlarg": 2335,
      "ury": 2336,
      "ext": 2337,
      "Ġregion": 2338,
      "Ġbring": 2339,
      "Ġbene": 2340,
      "alog": 2341,
      "Ġ25": 2342,
      "Ġspir": 2343,
      "Ġgroup": 2344,
      "Ġmodification": 2345,
      "Ġesc": 2346,
      "Ġestab": 2347,
      "ieuten": 2348,
      "dist": 2349,
      "lf": 2350,
      "Ġtable": 2351,
      "ining": 2352,
      "ony": 2353,
      "Ġce": 2354,
      "Ġgarrison": 2355,
      "ĠEast": 2356,
      "Ġprev": 2357,
      "ĠVicksburg": 2358,
      "ugust": 2359,
      "gs": 2360,
      "Ġtem": 2361,
      "inth": 2362,
      "reed": 2363,
      "Ġtold": 2364,
      "Ġeconom": 2365,
      "Ġgone": 2366,
      "Ġra": 2367,
      "oke": 2368,
      "Ġbelow": 2369,
      "ĠColonel": 2370,
      "Ġnamely": 2371,
      "Ġhabits": 2372,
      "Ġchildren": 2373,
      "do": 2374,
      "troops": 2375,
      "erve": 2376,
      "otom": 2377,
      "Ġmean": 2378,
      "Ġsupposed": 2379,
      "Ġ1914": 2380,
      "Ġlonger": 2381,
      "Ġsurpr": 2382,
      "ENT": 2383,
      "Ġengage": 2384,
      "could": 2385,
      "wing": 2386,
      "Ġsat": 2387,
      "Ġface": 2388,
      "aration": 2389,
      "Ġhill": 2390,
      "Ġprep": 2391,
      "ĠState": 2392,
      "Ġaccording": 2393,
      "Ġdirection": 2394,
      "ancock": 2395,
      "Ġletter": 2396,
      "Ġdriven": 2397,
      "Ġsoldiers": 2398,
      "IG": 2399,
      "ĠZ": 2400,
      "Ġmill": 2401,
      "ĠTreaty": 2402,
      "Ġwithd": 2403,
      "Ġstud": 2404,
      "Ġprocess": 2405,
      "Ġarr": 2406,
      "Ġunivers": 2407,
      "known": 2408,
      "Ġdue": 2409,
      "these": 2410,
      "ĠĠĠ": 2411,
      "Ġsevere": 2412,
      "Ġanimal": 2413,
      "Ġwonder": 2414,
      "19": 2415,
      "dle": 2416,
      "gun": 2417,
      "munition": 2418,
      "Ġsort": 2419,
      "essel": 2420,
      "Ġcoming": 2421,
      "ieve": 2422,
      "unction": 2423,
      "ĠWashington": 2424,
      "Ġ23": 2425,
      "Ġorganic": 2426,
      "Ġexperience": 2427,
      "Ġfuture": 2428,
      "Ġshown": 2429,
      "Ġshells": 2430,
      "Ġentirely": 2431,
      "Ġwatch": 2432,
      "Ġfresh": 2433,
      "asure": 2434,
      "ades": 2435,
      "Ġled": 2436,
      "ĠMe": 2437,
      "olly": 2438,
      "Ġneigh": 2439,
      "ference": 2440,
      "Ġ13": 2441,
      "Ġpossib": 2442,
      "ĠJames": 2443,
      "ANT": 2444,
      "Ġlooked": 2445,
      "ieutenant": 2446,
      "Cl": 2447,
      "afe": 2448,
      "ront": 2449,
      "raph": 2450,
      "time": 2451,
      "erable": 2452,
      "estern": 2453,
      "Ġstaff": 2454,
      "Ġdead": 2455,
      "Ġvessel": 2456,
      "oper": 2457,
      "Ġplain": 2458,
      "ailroad": 2459,
      "Ġdifferences": 2460,
      "Ġstrongly": 2461,
      "otomac": 2462,
      "OM": 2463,
      "omes": 2464,
      "Ġgovernment": 2465,
      "Ġislands": 2466,
      "Ġansw": 2467,
      "ĠSc": 2468,
      "Ġdeath": 2469,
      "ĠLe": 2470,
      "Ġprepar": 2471,
      "Ġflowers": 2472,
      "Ġcapital": 2473,
      "Ġdifference": 2474,
      "Ġcountries": 2475,
      "Ġattacked": 2476,
      "Ġextent": 2477,
      "Ġoppos": 2478,
      "she": 2479,
      "Ġdut": 2480,
      "Ġthick": 2481,
      "Ġexpect": 2482,
      "Ar": 2483,
      "when": 2484,
      "Ġbrigade": 2485,
      "Ġpen": 2486,
      "umb": 2487,
      "ressed": 2488,
      "Ġappeared": 2489,
      "Ġearth": 2490,
      "Ġsufficient": 2491,
      "Ġdetermined": 2492,
      "Ġinsects": 2493,
      "him": 2494,
      "vation": 2495,
      "Ġty": 2496,
      "Ġwing": 2497,
      "Ġthreat": 2498,
      "llen": 2499,
      "through": 2500,
      "antly": 2501,
      "Ġadap": 2502,
      "Ġreturned": 2503,
      "ING": 2504,
      "Ġclear": 2505,
      "Ġdetail": 2506,
      "Ġreported": 2507,
      "oe": 2508,
      "you": 2509,
      "ories": 2510,
      "oud": 2511,
      "ental": 2512,
      "used": 2513,
      "ĠOne": 2514,
      "Ġammunition": 2515,
      "Ġfoot": 2516,
      "Ġvariations": 2517,
      "Ġprovis": 2518,
      "dom": 2519,
      "ires": 2520,
      "rated": 2521,
      "water": 2522,
      "Ġage": 2523,
      "Ġnaval": 2524,
      "Ġgained": 2525,
      "ows": 2526,
      "Ġissu": 2527,
      "Ġdeep": 2528,
      "ĠHence": 2529,
      "Ġcommander": 2530,
      "Ġspace": 2531,
      "ĠVon": 2532,
      "Ġbelieved": 2533,
      "orses": 2534,
      "Ġlanding": 2535,
      "ĠJohnston": 2536,
      "ium": 2537,
      "tic": 2538,
      "war": 2539,
      "ceived": 2540,
      "Ġleaving": 2541,
      "Ġplant": 2542,
      "ĠNor": 2543,
      "Ġ20": 2544,
      "Ġdistrict": 2545,
      "Ġcertainly": 2546,
      "Ġmoving": 2547,
      "!\"": 2548,
      "Ġbus": 2549,
      "Ġhop": 2550,
      "alth": 2551,
      "ĠIs": 2552,
      "import": 2553,
      "andon": 2554,
      "ĠAd": 2555,
      "Ġproved": 2556,
      "urnside": 2557,
      "noon": 2558,
      "Brit": 2559,
      "lt": 2560,
      "lant": 2561,
      "light": 2562,
      "Ġbase": 2563,
      "itution": 2564,
      "Ġpick": 2565,
      "about": 2566,
      "Ġvary": 2567,
      "ĠEl": 2568,
      "bec": 2569,
      "Ġdiffer": 2570,
      "Ġbran": 2571,
      "Ġweek": 2572,
      "Ġsituation": 2573,
      "cond": 2574,
      "same": 2575,
      "ude": 2576,
      "ishes": 2577,
      "icable": 2578,
      "Ġstage": 2579,
      "ssil": 2580,
      "Ġvill": 2581,
      "ĠDivision": 2582,
      "ĠThat": 2583,
      "Ġ24": 2584,
      "cial": 2585,
      "Ġespecially": 2586,
      "cross": 2587,
      "Ġtor": 2588,
      "Ġcovered": 2589,
      "Ġlower": 2590,
      "Ġself": 2591,
      "ĠGreat": 2592,
      "ĠGovernment": 2593,
      "apan": 2594,
      "Ġallowed": 2595,
      "ĠRe": 2596,
      "ĠPro": 2597,
      "renched": 2598,
      "Ġcommenced": 2599,
      "Ġthroughout": 2600,
      "airs": 2601,
      "Ġchanged": 2602,
      "ĠRoad": 2603,
      "Ġtrees": 2604,
      "ĠTe": 2605,
      "arsh": 2606,
      "eparation": 2607,
      "should": 2608,
      "Ġcoast": 2609,
      "Ġobjects": 2610,
      "Ġhybrids": 2611,
      "gy": 2612,
      "ught": 2613,
      "err": 2614,
      "Ġcru": 2615,
      "Ġhost": 2616,
      "Ġwhatever": 2617,
      "ĠAugust": 2618,
      "perate": 2619,
      "ĠDr": 2620,
      "reek": 2621,
      "Ġsuppose": 2622,
      "Ġexped": 2623,
      "Ġdiscovered": 2624,
      "Ġindeed": 2625,
      "contin": 2626,
      "Ġhistory": 2627,
      "bs": 2628,
      "eth": 2629,
      "itted": 2630,
      "ister": 2631,
      "Ġcal": 2632,
      "lling": 2633,
      "Ġlive": 2634,
      "Ġseeds": 2635,
      "ĠPotomac": 2636,
      "ploy": 2637,
      "Ġcircumst": 2638,
      "Ġlarger": 2639,
      "spring": 2640,
      "Ġ*": 2641,
      "Ġbad": 2642,
      "Ġfrequ": 2643,
      "organ": 2644,
      "Ġship": 2645,
      "ouses": 2646,
      "ĠThomas": 2647,
      "Ġcorrespond": 2648,
      "ĠRussia": 2649,
      "Ġappearance": 2650,
      "eav": 2651,
      "mp": 2652,
      "oo": 2653,
      "Ġought": 2654,
      "Ġwag": 2655,
      "Ġstood": 2656,
      "uls": 2657,
      "ĠCan": 2658,
      "ĠCity": 2659,
      "Ġdev": 2660,
      "Ġdepart": 2661,
      "ĠHow": 2662,
      "Ġships": 2663,
      "Ġregiment": 2664,
      "ship": 2665,
      "Ġstruggle": 2666,
      "Ġboats": 2667,
      "Ġlosses": 2668,
      "Ġdevelopment": 2669,
      "Ġchanges": 2670,
      "Ġindividual": 2671,
      "Ġtell": 2672,
      "aract": 2673,
      "ots": 2674,
      "irgin": 2675,
      "ĠSir": 2676,
      "olute": 2677,
      "necess": 2678,
      "cret": 2679,
      "between": 2680,
      "condition": 2681,
      "inction": 2682,
      "Ġbur": 2683,
      "umed": 2684,
      "Ġgreatest": 2685,
      "ĠHere": 2686,
      "igned": 2687,
      "ixed": 2688,
      "Ġsurrender": 2689,
      "Ġfleet": 2690,
      "cor": 2691,
      "only": 2692,
      "then": 2693,
      "Ġdep": 2694,
      "again": 2695,
      "Ġfear": 2696,
      "before": 2697,
      "Ġrock": 2698,
      "Ġsupply": 2699,
      "Ġcontr": 2700,
      "Ġsuccessful": 2701,
      "ernand": 2702,
      "Ġnorthern": 2703,
      "formation": 2704,
      "Ġeasily": 2705,
      "Ġlaws": 2706,
      "Ġfavour": 2707,
      "clusion": 2708,
      ",âĢĿ": 2709,
      "joy": 2710,
      "mon": 2711,
      "made": 2712,
      "sur": 2713,
      "into": 2714,
      "Ġcre": 2715,
      "Ġmouth": 2716,
      "Ġheav": 2717,
      "Ġseven": 2718,
      "ularly": 2719,
      "ĠMem": 2720,
      "Ġchapter": 2721,
      "Ġentered": 2722,
      "ĠEnglish": 2723,
      "Ġpriv": 2724,
      "Ġbelonging": 2725,
      "Al": 2726,
      "uff": 2727,
      "Ġtreat": 2728,
      "Ġsal": 2729,
      "Ġsound": 2730,
      "Ġsize": 2731,
      "ingu": 2732,
      "Ġrepl": 2733,
      "Ġforts": 2734,
      "Ġdecl": 2735,
      "Ġ30": 2736,
      "Ġpecul": 2737,
      "ĠChattanooga": 2738,
      "Ġincrease": 2739,
      "diffe": 2740,
      "ĠConfederate": 2741,
      "Ġbatteries": 2742,
      "All": 2743,
      "ND": 2744,
      "asons": 2745,
      "Ġsex": 2746,
      "Ġdeb": 2747,
      "ĠHancock": 2748,
      "ĠPar": 2749,
      "elve": 2750,
      "Ġ21": 2751,
      "Ġappl": 2752,
      "ĠBritain": 2753,
      "Ġrule": 2754,
      "Ġfamil": 2755,
      "Ġfully": 2756,
      "And": 2757,
      "data": 2758,
      "yl": 2759,
      "ese": 2760,
      "Ġmot": 2761,
      "Ġhorses": 2762,
      "ask": 2763,
      "irt": 2764,
      "amed": 2765,
      "ĠPol": 2766,
      "portion": 2767,
      "bell": 2768,
      "Ġattention": 2769,
      "Ġquar": 2770,
      "Ġopened": 2771,
      "ĠItaly": 2772,
      "Ġfinally": 2773,
      "Ġfamily": 2774,
      "Ġpaper": 2775,
      "Ġopposite": 2776,
      "ials": 2777,
      "just": 2778,
      "Ġsight": 2779,
      "ening": 2780,
      "ones": 2781,
      "Ġhel": 2782,
      "Ġheight": 2783,
      "never": 2784,
      "Ġformation": 2785,
      "Ġremark": 2786,
      "angu": 2787,
      "Ġrelations": 2788,
      "Ġaddition": 2789,
      "Ġmembers": 2790,
      "Ġsubmarine": 2791,
      "irginia": 2792,
      "Ġwild": 2793,
      "Ġrebel": 2794,
      "ilt": 2795,
      "Ġancient": 2796,
      "Ġquick": 2797,
      "ancing": 2798,
      "Ġbreak": 2799,
      "ĠAustrians": 2800,
      "ĠWarren": 2801,
      "Ġjudge": 2802,
      ".-": 2803,
      "ha": 2804,
      "house": 2805,
      "oc": 2806,
      "iny": 2807,
      "anim": 2808,
      "Ġmer": 2809,
      "legr": 2810,
      "Ġnarrow": 2811,
      "Ġusu": 2812,
      "ayed": 2813,
      "Ġstation": 2814,
      "Ġneare": 2815,
      "Ġabandon": 2816,
      "Ġpoor": 2817,
      "Ġforeign": 2818,
      "Ġrequired": 2819,
      "Ġrapidly": 2820,
      "Clernand": 2821,
      "cour": 2822,
      "pan": 2823,
      "inst": 2824,
      "Ġcold": 2825,
      "enth": 2826,
      "Ġrepe": 2827,
      "Ġprop": 2828,
      "Ġargu": 2829,
      "alls": 2830,
      "Ġimag": 2831,
      "ĠWhat": 2832,
      "Ġdamage": 2833,
      "got": 2834,
      "oved": 2835,
      "whe": 2836,
      "Ġboy": 2837,
      "Ġfurn": 2838,
      "rol": 2839,
      "thod": 2840,
      "iful": 2841,
      "ĠSan": 2842,
      "Ġsure": 2843,
      "Ġsuff": 2844,
      "Ġrare": 2845,
      "Ġ16": 2846,
      "ĠOur": 2847,
      "Ġnumerous": 2848,
      "Ġextinct": 2849,
      "perior": 2850,
      "Ġequal": 2851,
      "Ġbroken": 2852,
      "Ġsouthern": 2853,
      "Ġanswer": 2854,
      "iet": 2855,
      "ming": 2856,
      "inion": 2857,
      "Ġthird": 2858,
      "Ġund": 2859,
      "osing": 2860,
      "ĠJapan": 2861,
      "Ġ28": 2862,
      "Ġafternoon": 2863,
      "Ġblood": 2864,
      "tersburg": 2865,
      "Ġbook": 2866,
      "Ġmountains": 2867,
      "ĠAmerican": 2868,
      "Pher": 2869,
      "iol": 2870,
      "uct": 2871,
      "rep": 2872,
      "Ġfought": 2873,
      "Ġcounter": 2874,
      "Ġstat": 2875,
      "abeth": 2876,
      "Ġconv": 2877,
      "ivil": 2878,
      "idered": 2879,
      "Ġworth": 2880,
      "izabeth": 2881,
      "Ġkinds": 2882,
      "Ġcomplex": 2883,
      "Ġfavor": 2884,
      "Ġaccompl": 2885,
      "Pherson": 2886,
      "An": 2887,
      "THE": 2888,
      "lor": 2889,
      "wenty": 2890,
      "Ġve": 2891,
      "reen": 2892,
      "athe": 2893,
      "alse": 2894,
      "Ġrendered": 2895,
      "fection": 2896,
      "Ġ27": 2897,
      "augh": 2898,
      "Ġfarther": 2899,
      "Ġgetting": 2900,
      "Ġbreeds": 2901,
      "Ġbuild": 2902,
      "Be": 2903,
      "OL": 2904,
      "tance": 2905,
      "uc": 2906,
      "itor": 2907,
      "Ġmine": 2908,
      "Ġtop": 2909,
      "Ġthirty": 2910,
      "iral": 2911,
      "Ġsugg": 2912,
      "ĠBo": 2913,
      "ĠWil": 2914,
      "ĠOh": 2915,
      "Ġcharge": 2916,
      "Ġoutside": 2917,
      "bered": 2918,
      "Ġ26": 2919,
      "oney": 2920,
      "Ġafterwards": 2921,
      "Ġconsidered": 2922,
      "Ġoffensive": 2923,
      "Ġfollows": 2924,
      "Ġsurround": 2925,
      "Ġhighly": 2926,
      "imentary": 2927,
      "ĠBelg": 2928,
      "Ġescape": 2929,
      "14": 2930,
      "ED": 2931,
      "My": 2932,
      "Russi": 2933,
      "ging": 2934,
      "hand": 2935,
      "line": 2936,
      "pass": 2937,
      "van": 2938,
      "Ġcond": 2939,
      "Ġmur": 2940,
      "Ġvoice": 2941,
      "ustri": 2942,
      "els": 2943,
      "ĠNow": 2944,
      "Ġpreser": 2945,
      "Ġserious": 2946,
      "Ġrailway": 2947,
      "Ġdiscuss": 2948,
      "Ġheadquarters": 2949,
      "ashville": 2950,
      "Ġslowly": 2951,
      "Ġprepared": 2952,
      "Ġpeculiar": 2953,
      "min": 2954,
      "may": 2955,
      "Ġsafe": 2956,
      "itable": 2957,
      "arl": 2958,
      "Ġinc": 2959,
      "Ġden": 2960,
      "cean": 2961,
      "ĠGR": 2962,
      "Ġcomb": 2963,
      "Ġparty": 2964,
      "Ġcompan": 2965,
      "Ġcompar": 2966,
      "order": 2967,
      "Ġrelated": 2968,
      "Ġseries": 2969,
      "Ġwanted": 2970,
      "Af": 2971,
      "EM": 2972,
      "ST": 2973,
      "first": 2974,
      "field": 2975,
      "mor": 2976,
      "pres": 2977,
      "Ġver": 2978,
      "Ġtou": 2979,
      "Ġegg": 2980,
      "cell": 2981,
      "rief": 2982,
      "abled": 2983,
      "Ġaccum": 2984,
      "Ġordinary": 2985,
      "phis": 2986,
      "tending": 2987,
      "Ġintrenched": 2988,
      "Ġuseful": 2989,
      "Ġpolit": 2990,
      "Ġpieces": 2991,
      "Ġstrength": 2992,
      "Ġexpedition": 2993,
      "500": 2994,
      "long": 2995,
      "uk": 2996,
      "Ġwom": 2997,
      "Ġfilled": 2998,
      "Ġmass": 2999,
      "Ġnavy": 3000,
      "than": 3001,
      "Ġstock": 3002,
      "ĠBurnside": 3003,
      "Ġrout": 3004,
      "Ġproduce": 3005,
      "Ġsimple": 3006,
      "Ġrunning": 3007,
      "Ġdemand": 3008,
      "ĠCommission": 3009,
      "Ġmaterial": 3010,
      "Ġapparently": 3011,
      "follow": 3012,
      "Ġeconomic": 3013,
      "50": 3014,
      "body": 3015,
      "face": 3016,
      "Ġcell": 3017,
      "Ġpost": 3018,
      "urally": 3019,
      "Ġmeant": 3020,
      "offic": 3021,
      "being": 3022,
      "such": 3023,
      "Ġflower": 3024,
      "Ġenter": 3025,
      "Ġprobable": 3026,
      "Ġevidence": 3027,
      "Ġeye": 3028,
      "Ġdirectly": 3029,
      "Ġfigure": 3030,
      "Ġduty": 3031,
      "If": 3032,
      "een": 3033,
      "every": 3034,
      "lished": 3035,
      "oll": 3036,
      "ying": 3037,
      "ze": 3038,
      "Ġess": 3039,
      "Ġsol": 3040,
      "isf": 3041,
      "acity": 3042,
      "ieved": 3043,
      "Ġmethod": 3044,
      "Ġchance": 3045,
      "Ġgreatly": 3046,
      "ization": 3047,
      "ĠVirginia": 3048,
      "Ġmovements": 3049,
      "Ġgiving": 3050,
      "Ġscene": 3051,
      "Ġstruck": 3052,
      "ĠYet": 3053,
      "Ġexisting": 3054,
      "Ġconcern": 3055,
      "British": 3056,
      "ai": 3057,
      "cing": 3058,
      "five": 3059,
      "has": 3060,
      "natural": 3061,
      "zo": 3062,
      "head": 3063,
      "Ġaid": 3064,
      "ouis": 3065,
      "Ġdim": 3066,
      "uted": 3067,
      "charact": 3068,
      "Ġhear": 3069,
      "ilities": 3070,
      "acy": 3071,
      "ules": 3072,
      "together": 3073,
      "ports": 3074,
      "Ġ29": 3075,
      "aught": 3076,
      "Ġtrave": 3077,
      "anged": 3078,
      "Ġdistribut": 3079,
      "Ġstrange": 3080,
      "Ġendeav": 3081,
      "Ġvisit": 3082,
      "Ġvictory": 3083,
      "Ġbeginning": 3084,
      "Ġbombardment": 3085,
      "Ġwithdraw": 3086,
      "By": 3087,
      "For": 3088,
      "HER": 3089,
      "cy": 3090,
      "Ġwat": 3091,
      "Ġmark": 3092,
      "aled": 3093,
      "ality": 3094,
      "Ġdre": 3095,
      "Ġstated": 3096,
      "Ġstopp": 3097,
      "Ġvast": 3098,
      "ackson": 3099,
      "Ġtwelve": 3100,
      "ĠDuring": 3101,
      "Ġdoing": 3102,
      "Ġaccept": 3103,
      "Ġdestruction": 3104,
      "Ġdefinite": 3105,
      "positions": 3106,
      "Ġleading": 3107,
      "Ġdefend": 3108,
      "Ġresembl": 3109,
      "ear": 3110,
      "uous": 3111,
      "Ġsqu": 3112,
      "Ġsuperior": 3113,
      "unity": 3114,
      "ĠReparation": 3115,
      "Ġafford": 3116,
      "success": 3117,
      "Ġpreced": 3118,
      "Ġblack": 3119,
      "Ġperiods": 3120,
      "look": 3121,
      "ĠEuropean": 3122,
      "ATION": 3123,
      "Ġoccurred": 3124,
      "Ġabsolute": 3125,
      "Ġdescendants": 3126,
      "Ġportion": 3127,
      "Ġjoin": 3128,
      "Ġgirls": 3129,
      "Ġbattles": 3130,
      "chool": 3131,
      "IL": 3132,
      "dest": 3133,
      "sim": 3134,
      "hest": 3135,
      "Ġcost": 3136,
      "arp": 3137,
      "Ġtot": 3138,
      "Ġexc": 3139,
      "Ġcomes": 3140,
      "osp": 3141,
      "Ġking": 3142,
      "Ġformations": 3143,
      "Ġ22": 3144,
      "ĠButler": 3145,
      "ceeding": 3146,
      "Ġbreed": 3147,
      "Ġhabit": 3148,
      "Ġsucceeded": 3149,
      "Ġpopulation": 3150,
      ".[": 3151,
      "mod": 3152,
      "na": 3153,
      "ued": 3154,
      "Ġred": 3155,
      "three": 3156,
      "iform": 3157,
      "Ġconce": 3158,
      "Ġarea": 3159,
      "alled": 3160,
      "Ġenjoy": 3161,
      "Ġpollen": 3162,
      "Ġcommanders": 3163,
      "...": 3164,
      "Ġeffects": 3165,
      "ĠGrand": 3166,
      "ĠPrz": 3167,
      "Ġneighbor": 3168,
      "?\"": 3169,
      "ID": 3170,
      "sm": 3171,
      "enry": 3172,
      "Ġforty": 3173,
      "ulg": 3174,
      "ulated": 3175,
      "olved": 3176,
      "Ġrud": 3177,
      "ague": 3178,
      "seless": 3179,
      "Ġdoor": 3180,
      "Ġattacks": 3181,
      "Ġcoal": 3182,
      "Ġformerly": 3183,
      "Ġspeed": 3184,
      "Ġdescended": 3185,
      "Ġmusic": 3186,
      "Ġspirit": 3187,
      "ĠGRANT": 3188,
      "rate": 3189,
      "vis": 3190,
      "Ġrecon": 3191,
      "Ġglo": 3192,
      "rific": 3193,
      "acc": 3194,
      "ĠGal": 3195,
      "Ġexact": 3196,
      "Ġexec": 3197,
      "Ġproportion": 3198,
      "Ġshore": 3199,
      "iege": 3200,
      "rying": 3201,
      "These": 3202,
      "Ġadmit": 3203,
      "Ġtrain": 3204,
      "ression": 3205,
      "Ġoffspring": 3206,
      "Ġstream": 3207,
      "ATT": 3208,
      "ĠMcPherson": 3209,
      "Ġinstructions": 3210,
      "alleck": 3211,
      "Ġhigher": 3212,
      "Ġvillage": 3213,
      "ĠMemphis": 3214,
      "10": 3215,
      "AC": 3216,
      "EL": 3217,
      "To": 3218,
      "little": 3219,
      "Ġsail": 3220,
      "ises": 3221,
      "Ġinj": 3222,
      "Ġpushed": 3223,
      "Ġnone": 3224,
      "ctive": 3225,
      "chi": 3226,
      "ĠAg": 3227,
      "Ġyards": 3228,
      "many": 3229,
      "ĠWright": 3230,
      "arian": 3231,
      "Ġactual": 3232,
      "Ġsuccessive": 3233,
      "ĠAfric": 3234,
      "boats": 3235,
      "ĠElizabeth": 3236,
      "After": 3237,
      "AD": 3238,
      "kind": 3239,
      "oid": 3240,
      "ron": 3241,
      "Ġtree": 3242,
      "Ġfac": 3243,
      "Ġpowers": 3244,
      "Ġthrow": 3245,
      "entle": 3246,
      "urch": 3247,
      "Ġupper": 3248,
      "erson": 3249,
      "Ġshape": 3250,
      "Ġago": 3251,
      "Ġunless": 3252,
      "Ġvariation": 3253,
      "Ġregiments": 3254,
      "Ġcontinent": 3255,
      "Ġvariety": 3256,
      "Ġdelight": 3257,
      "Ġequally": 3258,
      "pedo": 3259,
      "Ġperfectly": 3260,
      "appear": 3261,
      "Ġlearned": 3262,
      "Sherman": 3263,
      "During": 3264,
      "bout": 3265,
      "dire": 3266,
      "iently": 3267,
      "itiz": 3268,
      "Ġfast": 3269,
      "asing": 3270,
      "icate": 3271,
      "Ġlate": 3272,
      "Ġsomewhat": 3273,
      "ĠNot": 3274,
      "key": 3275,
      "Ġspring": 3276,
      "Ġintrench": 3277,
      "ĠĠĠĠĠĠĠĠĠĠĠĠĠĠĠĠĠĠĠĠĠĠĠĠ": 3278,
      "Ġrecord": 3279,
      "ĠCorps": 3280,
      "Ġprotect": 3281,
      "Ġfriends": 3282,
      "Ġdrove": 3283,
      "Ġfailed": 3284,
      "Ġsterility": 3285,
      "ĠMeade": 3286,
      "Ġcircumstances": 3287,
      "bre": 3288,
      "four": 3289,
      "ffered": 3290,
      "much": 3291,
      "inally": 3292,
      "Ġsle": 3293,
      "eness": 3294,
      "Ġbit": 3295,
      "Ġmist": 3296,
      "Ġmakes": 3297,
      "Ġmamm": 3298,
      "ste": 3299,
      "theless": 3300,
      "ĠSh": 3301,
      "Ġseed": 3302,
      "Ġrate": 3303,
      "Ġsole": 3304,
      "Ġallow": 3305,
      "acks": 3306,
      "ago": 3307,
      "aria": 3308,
      "while": 3309,
      "exist": 3310,
      "Ġpresence": 3311,
      "Germany": 3312,
      "Ġannoun": 3313,
      "Ġfifty": 3314,
      "Ġmerely": 3315,
      "Ġembry": 3316,
      "Ġengagement": 3317,
      "pot": 3318,
      "Ġtons": 3319,
      "Ġbal": 3320,
      "Ġfalse": 3321,
      "Ġmile": 3322,
      "Ġevent": 3323,
      "Ġlad": 3324,
      "Ġlist": 3325,
      "Ġweak": 3326,
      "ustom": 3327,
      "rupt": 3328,
      "ĠLouis": 3329,
      "place": 3330,
      "Ġremember": 3331,
      "Ġgives": 3332,
      "Ġopinion": 3333,
      "Ġtendency": 3334,
      "Ġobserved": 3335,
      "ĠPetersburg": 3336,
      "Ġprivate": 3337,
      "ners": 3338,
      "rist": 3339,
      "spect": 3340,
      "va": 3341,
      "Ġtried": 3342,
      "inate": 3343,
      "Ġbay": 3344,
      "Ġbesides": 3345,
      "iser": 3346,
      "arks": 3347,
      "Ġnation": 3348,
      "selection": 3349,
      "ĠIN": 3350,
      "utes": 3351,
      "Ġsection": 3352,
      "ĠHouse": 3353,
      "ĠNashville": 3354,
      "Ġclimate": 3355,
      "cience": 3356,
      "Ġflag": 3357,
      "Ġdistant": 3358,
      "comple": 3359,
      "Ġproductions": 3360,
      "Ġfinal": 3361,
      "Ġadded": 3362,
      "Ġprogen": 3363,
      "ĠMcClernand": 3364,
      "occup": 3365,
      "bellion": 3366,
      "Hung": 3367,
      "anu": 3368,
      "orter": 3369,
      "rop": 3370,
      "iff": 3371,
      "ĠMajor": 3372,
      "pped": 3373,
      "ĠHam": 3374,
      "Ġneither": 3375,
      "ardan": 3376,
      "ĠOf": 3377,
      "Ġinfer": 3378,
      "Ġeffected": 3379,
      "point": 3380,
      "Ġsecure": 3381,
      "Ġexisted": 3382,
      "Ġregarded": 3383,
      "Ġreinforcements": 3384,
      "Ġgeological": 3385,
      "ĠMexico": 3386,
      "ĠTeut": 3387,
      "AS": 3388,
      "Con": 3389,
      "OT": 3390,
      "XX": 3391,
      "ror": 3392,
      "Ġbig": 3393,
      "Ġfem": 3394,
      "isp": 3395,
      "Ġinformation": 3396,
      "Ġdanger": 3397,
      "Ġnest": 3398,
      "Ġlived": 3399,
      "Ġgold": 3400,
      "pet": 3401,
      "Ġconver": 3402,
      "Ġviol": 3403,
      "ptember": 3404,
      "Ġinstead": 3405,
      "Ġemploy": 3406,
      "Ġfortified": 3407,
      "Ġcheck": 3408,
      "Ġincreased": 3409,
      "Ġdecided": 3410,
      "Ġconnected": 3411,
      "come": 3412,
      "during": 3413,
      "gment": 3414,
      "erry": 3415,
      "itive": 3416,
      "Ġfine": 3417,
      "rote": 3418,
      "idges": 3419,
      "Ġune": 3420,
      "Ġsuper": 3421,
      "ĠHenry": 3422,
      "ĠHalleck": 3423,
      "hers": 3424,
      "usion": 3425,
      "usted": 3426,
      "ĠFour": 3427,
      "aved": 3428,
      "ĠNational": 3429,
      "Ġdescent": 3430,
      "Ġremains": 3431,
      "Ġlargely": 3432,
      "Ġinterv": 3433,
      "raft": 3434,
      "Ġarrival": 3435,
      "Ġacquainted": 3436,
      "Ġsuddenly": 3437,
      "Ġincluding": 3438,
      "ĠScott": 3439,
      "different": 3440,
      "ract": 3441,
      "Ġowing": 3442,
      "Ġwish": 3443,
      "Ġwait": 3444,
      "Ġbound": 3445,
      "orph": 3446,
      "army": 3447,
      "Ġhur": 3448,
      "Ġhast": 3449,
      "Ġdi": 3450,
      "set": 3451,
      "Ġgain": 3452,
      "ament": 3453,
      "eties": 3454,
      "Ġdear": 3455,
      "Ġneut": 3456,
      "clude": 3457,
      "Ġspent": 3458,
      "Ġobje": 3459,
      "anging": 3460,
      "upon": 3461,
      "Ġdelay": 3462,
      "Ġevents": 3463,
      "Ġpossessed": 3464,
      "Ġtelegr": 3465,
      "Ġfeelings": 3466,
      "Ġcompet": 3467,
      "Ġfifteen": 3468,
      "however": 3469,
      "US": 3470,
      "bit": 3471,
      "back": 3472,
      "cise": 3473,
      "hor": 3474,
      "jo": 3475,
      "ls": 3476,
      "pur": 3477,
      "ule": 3478,
      "yn": 3479,
      "Ġsick": 3480,
      "attered": 3481,
      "icated": 3482,
      "Ġlit": 3483,
      "Ġstory": 3484,
      "ĠBer": 3485,
      "Ġconcent": 3486,
      "Ġyield": 3487,
      "perfect": 3488,
      "cious": 3489,
      "ĠStreet": 3490,
      "othing": 3491,
      "Ġappre": 3492,
      "Ġboat": 3493,
      "....": 3494,
      "ternal": 3495,
      "Ġspeak": 3496,
      "Ġapproach": 3497,
      "Ġweeks": 3498,
      "Ġpursuit": 3499,
      "Ġcaused": 3500,
      "ĠOhio": 3501,
      "MA": 3502,
      "RE": 3503,
      "fle": 3504,
      "ties": 3505,
      "Ġ&": 3506,
      "ino": 3507,
      "erves": 3508,
      "Ġpure": 3509,
      "alley": 3510,
      "Ġder": 3511,
      "stood": 3512,
      "Ġlaid": 3513,
      "Ġforth": 3514,
      "Ġisland": 3515,
      "terly": 3516,
      "ĠTheir": 3517,
      "Ġconclusion": 3518,
      "Ġvon": 3519,
      "Ġvig": 3520,
      "forced": 3521,
      "def": 3522,
      "ĠJackson": 3523,
      "without": 3524,
      "Ġreceive": 3525,
      "Ġprinciples": 3526,
      "Ġacquired": 3527,
      "III": 3528,
      "Ġpossibly": 3529,
      "important": 3530,
      "ulsed": 3531,
      "HT": 3532,
      "car": 3533,
      "ience": 3534,
      "lier": 3535,
      "uated": 3536,
      "inity": 3537,
      "rer": 3538,
      "Ġfixed": 3539,
      "Ġcrew": 3540,
      "Ġhot": 3541,
      "Ġthrown": 3542,
      "ication": 3543,
      "ils": 3544,
      "Ġanalog": 3545,
      "ulf": 3546,
      "Ġconsequ": 3547,
      "Ġrain": 3548,
      "ĠHill": 3549,
      "ĠRailroad": 3550,
      "ĠPl": 3551,
      "Ġleg": 3552,
      "ĠLieutenant": 3553,
      "Ġuniform": 3554,
      "ciated": 3555,
      "Ġobv": 3556,
      "Ġdesp": 3557,
      "Ġdesign": 3558,
      "Ġcompany": 3559,
      "Ġlikewise": 3560,
      "rowd": 3561,
      "Ġnaturalists": 3562,
      "ĠAllied": 3563,
      "elles": 3564,
      "Ġattempted": 3565,
      "ointed": 3566,
      "Ġclasses": 3567,
      "fortun": 3568,
      "ooker": 3569,
      "Ġauthority": 3570,
      "unte": 3571,
      "Ġcompelled": 3572,
      "Ġextremely": 3573,
      "ĠOrd": 3574,
      "Ġdescribed": 3575,
      "Ġcommunication": 3576,
      "Ġacquaintance": 3577,
      "Ġiron": 3578,
      "Ġinflu": 3579,
      "',": 3580,
      ").": 3581,
      "large": 3582,
      "move": 3583,
      "ĠQ": 3584,
      "Ġsour": 3585,
      "Ġsnow": 3586,
      "Ġmag": 3587,
      "Ġhon": 3588,
      "Ġpal": 3589,
      "Ġsuffered": 3590,
      "Ġridge": 3591,
      "Ġproceeded": 3592,
      "Ġfossil": 3593,
      "Ġcapable": 3594,
      "Ġpasses": 3595,
      "AND": 3596,
      "overnments": 3597,
      "Ġsteps": 3598,
      "Ġminds": 3599,
      "ĠAustria": 3600,
      "Ġstreet": 3601,
      "trans": 3602,
      "ĠCorinth": 3603,
      "work": 3604,
      "Ġbeauty": 3605,
      "Ġtorpedo": 3606,
      "Ġeggs": 3607,
      "'.": 3608,
      "mist": 3609,
      "Ġign": 3610,
      "rect": 3611,
      "Ġfair": 3612,
      "Ġcivil": 3613,
      "Ġdiver": 3614,
      "Ġbear": 3615,
      "Ġet": 3616,
      "Ġreasons": 3617,
      "change": 3618,
      "ĠSw": 3619,
      "Ġextended": 3620,
      "ortunity": 3621,
      "umber": 3622,
      "Ġleaves": 3623,
      "ovember": 3624,
      "emysl": 3625,
      "urned": 3626,
      "Ġresp": 3627,
      "prob": 3628,
      "Ġoffer": 3629,
      "Ġsurv": 3630,
      "Ġappears": 3631,
      "Ġconstru": 3632,
      "atively": 3633,
      "Ġestim": 3634,
      "Ġseparated": 3635,
      "Ġprovisions": 3636,
      "against": 3637,
      "Ġstopped": 3638,
      "Com": 3639,
      "front": 3640,
      "mount": 3641,
      "ues": 3642,
      "Ġtrou": 3643,
      "Ġtask": 3644,
      "rey": 3645,
      "Ġwinter": 3646,
      "Ġsiege": 3647,
      "Ġmut": 3648,
      "Ġmig": 3649,
      "Ġintended": 3650,
      "Ġph": 3651,
      "icy": 3652,
      "ading": 3653,
      "ĠAND": 3654,
      "ĠCap": 3655,
      "Ġran": 3656,
      "odies": 3657,
      "ĠHood": 3658,
      "Ġclim": 3659,
      "Ġcompared": 3660,
      "ogn": 3661,
      "Ġinstances": 3662,
      "Ġexposed": 3663,
      "Ġeffective": 3664,
      "Ġeasy": 3665,
      "consider": 3666,
      "Ġexample": 3667,
      "Ġestablished": 3668,
      "IGHT": 3669,
      "Ġissued": 3670,
      "necessary": 3671,
      "ardanelles": 3672,
      "IV": 3673,
      "cil": 3674,
      "por": 3675,
      "ram": 3676,
      "taken": 3677,
      "Ġwon": 3678,
      "Ġschool": 3679,
      "ites": 3680,
      "Ġfat": 3681,
      "Ġhath": 3682,
      "Ġpat": 3683,
      "oted": 3684,
      "ĠBrig": 3685,
      "empl": 3686,
      "ĠCl": 3687,
      "oles": 3688,
      "Ġprove": 3689,
      "ours": 3690,
      "Ġcommence": 3691,
      "ĠEven": 3692,
      "forms": 3693,
      "Ġjoy": 3694,
      "iction": 3695,
      "Ġsurface": 3696,
      "ipped": 3697,
      "Ġstreets": 3698,
      "Ġfeeling": 3699,
      "appeared": 3700,
      "Ġbeautiful": 3701,
      "Ġinherited": 3702,
      "ĠGeorg": 3703,
      "Ġsatisf": 3704,
      "Ġvessels": 3705,
      "Ġtotal": 3706,
      "From": 3707,
      "OV": 3708,
      "lim": 3709,
      "ply": 3710,
      "inated": 3711,
      "Ġwire": 3712,
      "erted": 3713,
      "Ġsad": 3714,
      "orous": 3715,
      "Ġmarked": 3716,
      "Ġhar": 3717,
      "cely": 3718,
      "ĠHer": 3719,
      "Ġsoft": 3720,
      "ĠFirst": 3721,
      "Ġourselves": 3722,
      "Ġcloud": 3723,
      "Ġobl": 3724,
      "Ġremarked": 3725,
      "Ġseeing": 3726,
      "ĠKing": 3727,
      "ĠAustro": 3728,
      "ĠAustral": 3729,
      "Ġintro": 3730,
      "Ġdefense": 3731,
      "Ġlooking": 3732,
      "ology": 3733,
      "ĠSeptember": 3734,
      "Ġavail": 3735,
      "Ġseparate": 3736,
      "Ġparents": 3737,
      "Ġimproved": 3738,
      "ĠBlack": 3739,
      "Ġmiddle": 3740,
      "Ġefforts": 3741,
      "cellent": 3742,
      "Tur": 3743,
      "fit": 3744,
      "found": 3745,
      "must": 3746,
      "sing": 3747,
      "south": 3748,
      "Ġcitiz": 3749,
      "Ġmoney": 3750,
      "cember": 3751,
      "Ġreen": 3752,
      "Ġwholly": 3753,
      "theast": 3754,
      "emies": 3755,
      "Ġraid": 3756,
      "Ġrise": 3757,
      "ustration": 3758,
      "Ġenabled": 3759,
      "taining": 3760,
      "Ġnaturally": 3761,
      "Ġextra": 3762,
      "Ġsentence": 3763,
      "Ġnews": 3764,
      "Ġresults": 3765,
      "Ġforest": 3766,
      "Ġexpressed": 3767,
      "country": 3768,
      "Ġsubmarines": 3769,
      "Ġcreated": 3770,
      "Ġindependent": 3771,
      "Ġbusiness": 3772,
      "Ġusually": 3773,
      "Ġessent": 3774,
      "So": 3775,
      "bled": 3776,
      "each": 3777,
      "gener": 3778,
      "hip": 3779,
      "rance": 3780,
      "held": 3781,
      "Ġwings": 3782,
      "Ġwestern": 3783,
      "rible": 3784,
      "Ġproble": 3785,
      "umph": 3786,
      "ĠNe": 3787,
      "Ġtrade": 3788,
      "Ġtrains": 3789,
      "expl": 3790,
      "Ġscale": 3791,
      "Thus": 3792,
      "ĠAtlant": 3793,
      "ĠWhile": 3794,
      "Ġbuilt": 3795,
      "Ġprotection": 3796,
      "Ġprompt": 3797,
      "Ġcauses": 3798,
      "Ġfertility": 3799,
      "number": 3800,
      "Ġhighest": 3801,
      "anuary": 3802,
      "RO": 3803,
      "ech": 3804,
      "fess": 3805,
      "ov": 3806,
      "Ġerr": 3807,
      "Ġ...": 3808,
      "inks": 3809,
      "outhern": 3810,
      "Ġmention": 3811,
      "Ġmajor": 3812,
      "Ġanx": 3813,
      "que": 3814,
      "quest": 3815,
      "claim": 3816,
      "Ġspread": 3817,
      "angle": 3818,
      "uell": 3819,
      "Ġrepulsed": 3820,
      "Ġholding": 3821,
      "Ġdifficulties": 3822,
      "Ġexplained": 3823,
      "While": 3824,
      "going": 3825,
      "Ġhills": 3826,
      "Ġarrange": 3827,
      "Ġfrequently": 3828,
      "Ġremarkable": 3829,
      "Ġdistribution": 3830,
      "AM": 3831,
      "action": 3832,
      "called": 3833,
      "even": 3834,
      "ole": 3835,
      "sk": 3836,
      "Ġwrote": 3837,
      "Ġmother": 3838,
      "Ġhouses": 3839,
      "Ġnine": 3840,
      "Ġrebellion": 3841,
      "otton": 3842,
      "urther": 3843,
      "acqu": 3844,
      "Ġareas": 3845,
      "Ġproceed": 3846,
      "ourt": 3847,
      "artment": 3848,
      "Ġenc": 3849,
      "Ġenorm": 3850,
      "bert": 3851,
      "Ġjour": 3852,
      "Ġspot": 3853,
      "oughly": 3854,
      "ordinary": 3855,
      "Ġwarm": 3856,
      "Ġeverything": 3857,
      "Ġpassing": 3858,
      "Ġcrosses": 3859,
      "Ġdefence": 3860,
      "Ġhappy": 3861,
      "Ġdecis": 3862,
      "Ġcompletely": 3863,
      "Ġsurprise": 3864,
      "Ġcounterattack": 3865,
      "MAJ": 3866,
      "equ": 3867,
      "uge": 3868,
      "Ġfiring": 3869,
      "Ġinformed": 3870,
      "Ġpict": 3871,
      "Ġgentle": 3872,
      "thousand": 3873,
      "chant": 3874,
      "pel": 3875,
      "aches": 3876,
      "ĠMount": 3877,
      "olina": 3878,
      "ĠEvery": 3879,
      "ĠEarly": 3880,
      "ultane": 3881,
      "cip": 3882,
      "ciety": 3883,
      "Ġnative": 3884,
      "Ġsubs": 3885,
      "Ġgenerations": 3886,
      "Ġclearly": 3887,
      "Ġeastern": 3888,
      "therefore": 3889,
      "capt": 3890,
      "Ġdispatch": 3891,
      "Ġphilosophy": 3892,
      "aughter": 3893,
      "Ġtouch": 3894,
      "Ġconcerned": 3895,
      "UT": 3896,
      "might": 3897,
      "erning": 3898,
      "Ġsong": 3899,
      "Ġbed": 3900,
      "Ġbas": 3901,
      "several": 3902,
      "iding": 3903,
      "Ġuseless": 3904,
      "those": 3905,
      "Ġhair": 3906,
      "ĠGulf": 3907,
      "ĠMon": 3908,
      "ĠWhy": 3909,
      "tell": 3910,
      "Ġunable": 3911,
      "Ġunknown": 3912,
      "Ġvariability": 3913,
      "Ġpassage": 3914,
      "emberton": 3915,
      "ĠColumb": 3916,
      "Ġslightly": 3917,
      "Ġconnect": 3918,
      "Ġreaching": 3919,
      "Ġreinforce": 3920,
      "Ġinstincts": 3921,
      "Ġfamilies": 3922,
      "Ġroute": 3923,
      "Ġrudimentary": 3924,
      "Ġetc": 3925,
      ".=": 3926,
      "aun": 3927,
      "eal": 3928,
      "fall": 3929,
      "iary": 3930,
      "Ġaver": 3931,
      "Ġfit": 3932,
      "isk": 3933,
      "Ġpain": 3934,
      "Ġdivers": 3935,
      "leg": 3936,
      "Ġreduced": 3937,
      "ĠTwo": 3938,
      "Ġweather": 3939,
      "aylor": 3940,
      "illi": 3941,
      "Ġconsequently": 3942,
      "ĠMany": 3943,
      "Ġdeal": 3944,
      "Ġvirt": 3945,
      "Ġproposition": 3946,
      "usk": 3947,
      "Ġspecific": 3948,
      "Ġquiet": 3949,
      "Ġbecomes": 3950,
      "ograph": 3951,
      "Ġadvancing": 3952,
      "ictor": 3953,
      "unday": 3954,
      "possess": 3955,
      "Ġviews": 3956,
      "imately": 3957,
      "Ġdetach": 3958,
      "ottom": 3959,
      "Ġvisited": 3960,
      "Ġsoldier": 3961,
      "Ġsilk": 3962,
      "allel": 3963,
      "Ġdrawn": 3964,
      "gypt": 3965,
      "ĠJapanese": 3966,
      "Ġwaters": 3967,
      "umberland": 3968,
      "With": 3969,
      "eed": 3970,
      "pri": 3971,
      "swe": 3972,
      "ye": 3973,
      "ator": 3974,
      "Ġcred": 3975,
      "Ġcott": 3976,
      "another": 3977,
      "alion": 3978,
      "alked": 3979,
      "room": 3980,
      "Ġlangu": 3981,
      "omat": 3982,
      "cto": 3983,
      "ims": 3984,
      "urs": 3985,
      "ĠGod": 3986,
      "ĠMack": 3987,
      "oli": 3988,
      "ĠHooker": 3989,
      "individ": 3990,
      "Ġotherwise": 3991,
      "ĠDardanelles": 3992,
      "Ġspite": 3993,
      "Ġdesire": 3994,
      "Ġsubstant": 3995,
      "Ġassigned": 3996,
      "ception": 3997,
      "Ġscar": 3998,
      "ĠItalians": 3999,
      "obile": 4000,
      "Ġauthorities": 4001,
      "Ġinherit": 4002,
      "Ġfavourable": 4003,
      "Ġquarter": 4004,
      "jud": 4005,
      "met": 4006,
      "miral": 4007,
      "six": 4008,
      "inch": 4009,
      "Ġocean": 4010,
      "itation": 4011,
      "Ġcast": 4012,
      "Ġcattle": 4013,
      "Ġcrowd": 4014,
      "ashed": 4015,
      "Ġstep": 4016,
      "Ġexper": 4017,
      "Ġexcellent": 4018,
      "Ġenemies": 4019,
      "Ġlevel": 4020,
      "class": 4021,
      "ĠVan": 4022,
      "Ġ(_": 4023,
      "comp": 4024,
      "hens": 4025,
      "Ġserve": 4026,
      "inking": 4027,
      "insula": 4028,
      "Ġshowed": 4029,
      "Ġdrive": 4030,
      "cluded": 4031,
      "Ġrub": 4032,
      "Ġmarched": 4033,
      "ĠBefore": 4034,
      "Ġclaims": 4035,
      "ĠDecember": 4036,
      "Ġtype": 4037,
      "Ġadapted": 4038,
      "conditions": 4039,
      "Ġhelp": 4040,
      "Ġquickly": 4041,
      "ctober": 4042,
      "dem": 4043,
      "gen": 4044,
      "pes": 4045,
      "ufact": 4046,
      "Ġwit": 4047,
      "Ġfirm": 4048,
      "Ġmort": 4049,
      "rod": 4050,
      "Ġbees": 4051,
      "Ġstores": 4052,
      "acial": 4053,
      "ĠBuell": 4054,
      "Ġconvers": 4055,
      "allace": 4056,
      "They": 4057,
      "ensen": 4058,
      "enses": 4059,
      "Ġdesperate": 4060,
      "Ġremarks": 4061,
      "Ġcomposed": 4062,
      "Ġaccord": 4063,
      "Ġcapacity": 4064,
      "ĠArt": 4065,
      "Ġorganisation": 4066,
      "Ġconstitution": 4067,
      "appro": 4068,
      "ublic": 4069,
      "Germans": 4070,
      "Ġearlier": 4071,
      "effect": 4072,
      "Ġprior": 4073,
      "Ġoccasionally": 4074,
      "Ġgrowth": 4075,
      "Ġraised": 4076,
      "ĠNorthern": 4077,
      "Ġstatement": 4078,
      "eff": 4079,
      "fam": 4080,
      "ground": 4081,
      "pal": 4082,
      "inal": 4083,
      "onic": 4084,
      "atched": 4085,
      "asant": 4086,
      "Ġdied": 4087,
      "Ġdivid": 4088,
      "Ġthread": 4089,
      "rock": 4090,
      "Ġbeak": 4091,
      "Ġgas": 4092,
      "ĠTO": 4093,
      "Ġask": 4094,
      "Ġselected": 4095,
      "ĠCreek": 4096,
      "ivity": 4097,
      "artillery": 4098,
      "agraph": 4099,
      "ĠLa": 4100,
      "ĠNovember": 4101,
      "ĠJanuary": 4102,
      "Ġlog": 4103,
      "Ġlocal": 4104,
      "Ġresistance": 4105,
      "jected": 4106,
      "Ġstrict": 4107,
      "Ġmodern": 4108,
      "Ġstanding": 4109,
      "ucky": 4110,
      "Ġwonderful": 4111,
      "Ġwagons": 4112,
      "Ġabandoned": 4113,
      "ĠAfrica": 4114,
      "Ġavailable": 4115,
      ".--": 4116,
      "12": 4117,
      "east": 4118,
      "iber": 4119,
      "nature": 4120,
      "uable": 4121,
      "reason": 4122,
      "Ġbodies": 4123,
      "Ġpaid": 4124,
      "Ġult": 4125,
      "Ġrations": 4126,
      "ighting": 4127,
      "ĠHar": 4128,
      "Ġmel": 4129,
      "Ġpartly": 4130,
      "sured": 4131,
      "urning": 4132,
      "anges": 4133,
      "Ġvariable": 4134,
      "Ġdistingu": 4135,
      "Ġfrontier": 4136,
      "oubted": 4137,
      "Ġsaying": 4138,
      "ĠWhite": 4139,
      "Ġpublished": 4140,
      "Ġminutes": 4141,
      "Ġjoined": 4142,
      "Ġoriginal": 4143,
      "Ġestablish": 4144,
      "ĠParis": 4145,
      "30": 4146,
      "hold": 4147,
      "non": 4148,
      "Ġsaf": 4149,
      "ona": 4150,
      "Ġhung": 4151,
      "Ġrevol": 4152,
      "iled": 4153,
      "rial": 4154,
      "ables": 4155,
      "Ġrich": 4156,
      "ushing": 4157,
      "Ġsharp": 4158,
      "ccording": 4159,
      "ĠJust": 4160,
      "conf": 4161,
      "Ġobtained": 4162,
      "proper": 4163,
      "Ġmodifications": 4164,
      "Ġsecur": 4165,
      "Ġmaintain": 4166,
      "difficult": 4167,
      "ĠĠĠĠĠĠĠ": 4168,
      "varieties": 4169,
      "Ġcarrying": 4170,
      "Ġuniversal": 4171,
      "Ġreplied": 4172,
      "ylvan": 4173,
      "ĠPrzemysl": 4174,
      "ĠGalic": 4175,
      "Ġmammals": 4176,
      "Ġbalance": 4177,
      "Europe": 4178,
      "Un": 4179,
      "aily": 4180,
      "fav": 4181,
      "happ": 4182,
      "mission": 4183,
      "rust": 4184,
      "tow": 4185,
      "tled": 4186,
      "Ġsn": 4187,
      "left": 4188,
      "chief": 4189,
      "Ġstop": 4190,
      "ĠBoth": 4191,
      "antic": 4192,
      "Ġneg": 4193,
      "Then": 4194,
      "Ġouter": 4195,
      "ĠVer": 4196,
      "Ġ1919": 4197,
      "pract": 4198,
      "Ġ35": 4199,
      "Ġassistance": 4200,
      "Ġblue": 4201,
      "ĠChrist": 4202,
      "Ġterm": 4203,
      "Ġacts": 4204,
      "Ġsuccession": 4205,
      "Ġreply": 4206,
      "Ġrecogn": 4207,
      "Ġshows": 4208,
      "Ġcontinuous": 4209,
      "Ġinvest": 4210,
      "Ġcentre": 4211,
      "Ġbroke": 4212,
      "Ġstriking": 4213,
      "Ġdefeated": 4214,
      "igeon": 4215,
      "Ġlabor": 4216,
      "Ġargument": 4217,
      "Ġsuffer": 4218,
      "Ġpolitical": 4219,
      "Ġneighborhood": 4220,
      "18": 4221,
      "rain": 4222,
      "sy": 4223,
      "zen": 4224,
      "iting": 4225,
      "Ġfru": 4226,
      "isl": 4227,
      "orig": 4228,
      "Ġmult": 4229,
      "Ġmale": 4230,
      "asual": 4231,
      "Ġlives": 4232,
      "Ġgall": 4233,
      "irable": 4234,
      "idently": 4235,
      "ift": 4236,
      "ĠSer": 4237,
      "ĠMin": 4238,
      "Ġrace": 4239,
      "Ġcanal": 4240,
      "Ġrose": 4241,
      "Ġquarters": 4242,
      "Ġflo": 4243,
      "ĠValley": 4244,
      "bling": 4245,
      "Ġcollected": 4246,
      "Ġblind": 4247,
      "Ġnecessarily": 4248,
      "Ġconfined": 4249,
      "Ġconstant": 4250,
      "Ġopportunity": 4251,
      "Ġmiserable": 4252,
      "Ġconcerning": 4253,
      "Ġdescription": 4254,
      "Ġsucceed": 4255,
      "ĠMexican": 4256,
      "Ġpiece": 4257,
      "Ġsterile": 4258,
      "mpath": 4259,
      "Ġcreation": 4260,
      "Ġsalient": 4261,
      "panied": 4262,
      "Ġoblig": 4263,
      "ylvania": 4264,
      ".)": 4265,
      "cle": 4266,
      "down": 4267,
      "having": 4268,
      "lied": 4269,
      "main": 4270,
      "nal": 4271,
      "put": 4272,
      "Ġtill": 4273,
      "incre": 4274,
      "Ġinqu": 4275,
      "street": 4276,
      "entral": 4277,
      "ĠTaylor": 4278,
      "ĠSte": 4279,
      "ĠSuch": 4280,
      "anted": 4281,
      "ĠCam": 4282,
      "ongress": 4283,
      "ĠEgypt": 4284,
      "Ġdesired": 4285,
      "Ġcontrol": 4286,
      "epartment": 4287,
      "Ġstra": 4288,
      "Ġbridges": 4289,
      "Ġgoes": 4290,
      "Ġactually": 4291,
      "ancy": 4292,
      "Ġdestroying": 4293,
      "Ġdiscover": 4294,
      "Ġfallen": 4295,
      "Ġskirm": 4296,
      "Ġjudgment": 4297,
      "Ġabsence": 4298,
      "Ġavoid": 4299,
      "poses": 4300,
      "Ġsunk": 4301,
      "Ġsurrendered": 4302,
      "Ġsweet": 4303,
      "ĠBridge": 4304,
      "Ġceased": 4305,
      "Ġnearest": 4306,
      "Ġboys": 4307,
      "Ġcells": 4308,
      "ATTLE": 4309,
      "Mr": 4310,
      "aver": 4311,
      "fare": 4312,
      "iation": 4313,
      "take": 4314,
      "rec": 4315,
      "Ġsand": 4316,
      "atur": 4317,
      "Ġcrit": 4318,
      "Ġmines": 4319,
      "anding": 4320,
      "Ġisol": 4321,
      "acing": 4322,
      "ems": 4323,
      "abs": 4324,
      "ĠMar": 4325,
      "ĠMobile": 4326,
      "ĠPo": 4327,
      "ager": 4328,
      "ultiv": 4329,
      "Ġregions": 4330,
      "Ġlikely": 4331,
      "Ġserv": 4332,
      "Ġeffic": 4333,
      "Ġcharged": 4334,
      "Ġgoods": 4335,
      "Ġsimply": 4336,
      "Ġfortress": 4337,
      "partic": 4338,
      "Ġsixty": 4339,
      "grad": 4340,
      "ĠSea": 4341,
      "cluding": 4342,
      "lecting": 4343,
      "onelson": 4344,
      "Ġmatters": 4345,
      "Ġsoul": 4346,
      "Ġpolicy": 4347,
      "Ġfertile": 4348,
      "Ġaware": 4349,
      "arships": 4350,
      "Ġcorresponding": 4351,
      "animals": 4352,
      "Ġresemblance": 4353,
      "small": 4354,
      "Ġintervals": 4355,
      "ĠCaptain": 4356,
      "Ġjourney": 4357,
      "Austri": 4358,
      "Col": 4359,
      "cut": 4360,
      "det": 4361,
      "present": 4362,
      "view": 4363,
      "inc": 4364,
      "inent": 4365,
      "Ġwr": 4366,
      "Ġscience": 4367,
      "Ġble": 4368,
      "Ġbottom": 4369,
      "ork": 4370,
      "oroughly": 4371,
      "Ġdate": 4372,
      "add": 4373,
      "Ġassured": 4374,
      "ama": 4375,
      "Ġstar": 4376,
      "ĠSunday": 4377,
      "ĠCumberland": 4378,
      "ĠMore": 4379,
      "Ġraces": 4380,
      "apt": 4381,
      "umption": 4382,
      "ĠPemberton": 4383,
      "arsaw": 4384,
      "Ġquant": 4385,
      "Ġ34": 4386,
      "Ġserved": 4387,
      "Ġartic": 4388,
      "Ġproduction": 4389,
      "That": 4390,
      "Ġevac": 4391,
      "ĠSecond": 4392,
      "Ġthousands": 4393,
      "Ġrequire": 4394,
      "Ġmeeting": 4395,
      "Ġtransports": 4396,
      "Ġneeded": 4397,
      "Ġprofess": 4398,
      "Ġimmense": 4399,
      "character": 4400,
      "Ġabsolutely": 4401,
      "ĠAtlanta": 4402,
      "ealand": 4403,
      "bro": 4404,
      "fantry": 4405,
      "iant": 4406,
      "ius": 4407,
      "ike": 4408,
      "ma": 4409,
      "Ġice": 4410,
      "Ġwret": 4411,
      "ena": 4412,
      "ators": 4413,
      "Ġbread": 4414,
      "Ġbrief": 4415,
      "Ġfired": 4416,
      "ordered": 4417,
      "almost": 4418,
      "Ġbeat": 4419,
      "Ġevil": 4420,
      "entucky": 4421,
      "Ġlar": 4422,
      "irth": 4423,
      "ĠAT": 4424,
      "ĠSav": 4425,
      "Ġsevent": 4426,
      "Ġcompl": 4427,
      "ĠCo": 4428,
      "ĠPort": 4429,
      "Ġlegs": 4430,
      "ĠLong": 4431,
      "Ġfellow": 4432,
      "develop": 4433,
      "aws": 4434,
      "aud": 4435,
      "Ġwhereas": 4436,
      "Ġ32": 4437,
      "ĠUnder": 4438,
      "Ġworked": 4439,
      "Ġcontinue": 4440,
      "Ġengine": 4441,
      "object": 4442,
      "Ġmarching": 4443,
      "Ġideas": 4444,
      "ĠPeace": 4445,
      "ĠCarolina": 4446,
      "distinct": 4447,
      "Ġprevious": 4448,
      "Ġstudy": 4449,
      "Ġpreparations": 4450,
      "Ġfurnished": 4451,
      "Ġpreserved": 4452,
      "Ġignor": 4453,
      "Ġreenforcements": 4454,
      "fessor": 4455,
      ",--": 4456,
      "Ill": 4457,
      "grou": 4458,
      "nel": 4459,
      "ux": 4460,
      "your": 4461,
      "Ġurg": 4462,
      "Ġsave": 4463,
      "itute": 4464,
      "ouri": 4465,
      "aries": 4466,
      "Ġlack": 4467,
      "Ġrender": 4468,
      "thought": 4469,
      "ĠAm": 4470,
      "ĠApp": 4471,
      "ĠSch": 4472,
      "ĠBay": 4473,
      "emed": 4474,
      "Ġexcess": 4475,
      "Ġdeck": 4476,
      "orted": 4477,
      "ĠPer": 4478,
      "itions": 4479,
      "osecr": 4480,
      "Ġadmitted": 4481,
      "ĠEd": 4482,
      "ĠDan": 4483,
      "Ġages": 4484,
      "Ġagree": 4485,
      "Ġherself": 4486,
      "Ġrelieved": 4487,
      "Ġways": 4488,
      "Ġblow": 4489,
      "Ġgunboats": 4490,
      "oubt": 4491,
      "Ġrecent": 4492,
      "Ġthoughts": 4493,
      "sequent": 4494,
      "Ġskin": 4495,
      "Ġhappened": 4496,
      "Ġquestions": 4497,
      "Ġgradually": 4498,
      "annah": 4499,
      "Ġpleasure": 4500,
      "Ġranked": 4501,
      "Ġvolunte": 4502,
      "cretary": 4503,
      "ĠPoland": 4504,
      "Ġintrenchments": 4505,
      "Ġcitizens": 4506,
      "ĠMackensen": 4507,
      "osecrans": 4508,
      "IA": 4509,
      "You": 4510,
      "bur": 4511,
      "did": 4512,
      "iations": 4513,
      "mind": 4514,
      "until": 4515,
      "reck": 4516,
      "Ġwand": 4517,
      "Ġfish": 4518,
      "anation": 4519,
      "orrow": 4520,
      "Ġhum": 4521,
      "Ġperman": 4522,
      "Ġpath": 4523,
      "Ġdry": 4524,
      "Ġthin": 4525,
      "still": 4526,
      "Ġreprodu": 4527,
      "Ġgovern": 4528,
      "otion": 4529,
      "Ġweight": 4530,
      "Ġwealth": 4531,
      "Ġstates": 4532,
      "ements": 4533,
      "ĠGall": 4534,
      "Ġexha": 4535,
      "ĠCler": 4536,
      "Ġdepos": 4537,
      "ĠWallace": 4538,
      "ĠPal": 4539,
      "Ġmanufact": 4540,
      "Ġplans": 4541,
      "close": 4542,
      "Ġpermitted": 4543,
      "ails": 4544,
      "Ġremem": 4545,
      "Ġrelief": 4546,
      "ĠCharl": 4547,
      "Ġworking": 4548,
      "Ġactive": 4549,
      "Ġdefensive": 4550,
      "Ġvaluable": 4551,
      "Ġmaintained": 4552,
      "Ġexception": 4553,
      "Ġescap": 4554,
      "Ġfalling": 4555,
      "ferred": 4556,
      "believe": 4557,
      "standing": 4558,
      "Ġhappiness": 4559,
      "Ġsupported": 4560,
      "Ġprotected": 4561,
      "Sheridan": 4562,
      "1915": 4563,
      "Ġthreatened": 4564,
      "Ġsurrounded": 4565,
      "Ġwomen": 4566,
      "Ġprogenitor": 4567,
      "Ġneutral": 4568,
      "Ġscarcely": 4569,
      "Ġinheritance": 4570,
      "16": 4571,
      "Gen": 4572,
      "Pr": 4573,
      "good": 4574,
      "sent": 4575,
      "Ġident": 4576,
      "Ġtim": 4577,
      "inced": 4578,
      "inhabit": 4579,
      "Ġcat": 4580,
      "Ġcotton": 4581,
      "Ġmales": 4582,
      "Ġhomes": 4583,
      "ctic": 4584,
      "Ġredu": 4585,
      "Ġones": 4586,
      "Ġasso": 4587,
      "amps": 4588,
      "Ġang": 4589,
      "acrific": 4590,
      "Ġextending": 4591,
      "Ġrav": 4592,
      "ival": 4593,
      "Ġprospect": 4594,
      "Ġneck": 4595,
      "tox": 4596,
      "Ġcolon": 4597,
      "Ġgrand": 4598,
      "Ġsimultane": 4599,
      "Ġconsideration": 4600,
      "Ġgeneration": 4601,
      "Ġsympath": 4602,
      "Ġprovided": 4603,
      "Ġparallel": 4604,
      "ributed": 4605,
      "Ġsummer": 4606,
      "Ġwritten": 4607,
      "Ġdefeat": 4608,
      "Ġremaining": 4609,
      "What": 4610,
      "Ġcolumns": 4611,
      "Ġelsewhere": 4612,
      "ĠZealand": 4613,
      "Ġadapt": 4614,
      "Ġhopes": 4615,
      "ĠAdmiral": 4616,
      "Ġmotion": 4617,
      "Ġexactly": 4618,
      "occupied": 4619,
      "Ġdespair": 4620,
      "ographical": 4621,
      "omattox": 4622,
      "(*": 4623,
      "+--------": 4624,
      "No": 4625,
      "del": 4626,
      "division": 4627,
      "ele": 4628,
      "gl": 4629,
      "hib": 4630,
      "last": 4631,
      "Ġtrying": 4632,
      "atives": 4633,
      "Ġband": 4634,
      "Ġbrig": 4635,
      "ancial": 4636,
      "Ġmess": 4637,
      "arn": 4638,
      "astern": 4639,
      "Ġnations": 4640,
      "stra": 4641,
      "Ġelect": 4642,
      "Ġrenew": 4643,
      "immediate": 4644,
      "ays": 4645,
      "Ġstages": 4646,
      "ĠBulg": 4647,
      "Ġnote": 4648,
      "illing": 4649,
      "istic": 4650,
      "Ġshot": 4651,
      "ĠOctober": 4652,
      "ĠLin": 4653,
      "ĠLook": 4654,
      "Ġunderstood": 4655,
      "Ġremote": 4656,
      "izing": 4657,
      "ĠVictor": 4658,
      "Ġcontempl": 4659,
      "Ġ33": 4660,
      "Ġbrave": 4661,
      "Ġblock": 4662,
      "Ġproduct": 4663,
      "venth": 4664,
      "Ġopposed": 4665,
      "Ġbrother": 4666,
      "Ġopening": 4667,
      "Ġmisery": 4668,
      "Ġremainder": 4669,
      "Ġminute": 4670,
      "ĠIndian": 4671,
      "Ġeleven": 4672,
      "Ġaffairs": 4673,
      "ĠBragg": 4674,
      "Ġtemper": 4675,
      "Ġplainly": 4676,
      "Ġdetails": 4677,
      "because": 4678,
      "crossing": 4679,
      "Ġwagon": 4680,
      "Ġaccomplished": 4681,
      "Ġsuggested": 4682,
      "Russian": 4683,
      "Ġsource": 4684,
      "First": 4685,
      "nce": 4686,
      "north": 4687,
      "zer": 4688,
      "Ġid": 4689,
      "atory": 4690,
      "Ġfund": 4691,
      "Ġdon": 4692,
      "adier": 4693,
      "ctor": 4694,
      "people": 4695,
      "Ġcomfort": 4696,
      "ĠCentral": 4697,
      "isting": 4698,
      "istula": 4699,
      "aper": 4700,
      "ources": 4701,
      "Ġmeasure": 4702,
      "ĠOld": 4703,
      "Ġprey": 4704,
      "Ġknowing": 4705,
      "ogan": 4706,
      "Ġaccur": 4707,
      "oyal": 4708,
      "eeth": 4709,
      "Ġpresented": 4710,
      "Ġcourage": 4711,
      "Ġopposition": 4712,
      "Ġdoubtful": 4713,
      "Ġpersons": 4714,
      "Ġstructures": 4715,
      "knowledge": 4716,
      "Ġparticularly": 4717,
      "Ġcarefully": 4718,
      "Ġcreature": 4719,
      "ĠGeorge": 4720,
      "Ġmillion": 4721,
      "Ġproposed": 4722,
      "Ġdimin": 4723,
      "Hungarian": 4724,
      "Ġrespons": 4725,
      "Ġenormous": 4726,
      "French": 4727,
      "make": 4728,
      "mosp": 4729,
      "Ġlying": 4730,
      "interest": 4731,
      "oral": 4732,
      "ouble": 4733,
      "arri": 4734,
      "Ġded": 4735,
      "Ġdie": 4736,
      "Ġforage": 4737,
      "Ġexterm": 4738,
      "ĠCongress": 4739,
      "ĠWhere": 4740,
      "ĠWarsaw": 4741,
      "ump": 4742,
      "ĠFOR": 4743,
      "Ġenable": 4744,
      "elix": 4745,
      "rud": 4746,
      "russi": 4747,
      "aging": 4748,
      "ishment": 4749,
      "Ġclosed": 4750,
      "suffic": 4751,
      "Ġreserve": 4752,
      "Ġsubst": 4753,
      "Ġregular": 4754,
      "Ġpointed": 4755,
      "Ġextinction": 4756,
      "Ġapart": 4757,
      "Ġreader": 4758,
      "Ġconstantly": 4759,
      "Ġstret": 4760,
      "auses": 4761,
      "Ġexplanation": 4762,
      "Ġexpression": 4763,
      "Ġlimited": 4764,
      "ĠIndia": 4765,
      "Ġmaterials": 4766,
      "Ġincluded": 4767,
      "Ġ1864": 4768,
      "Ġheights": 4769,
      "Ġinfluence": 4770,
      "ĠQu": 4771,
      "MAJOR": 4772,
      "Ġdivided": 4773,
      "13": 4774,
      "EC": 4775,
      "OS": 4776,
      "Or": 4777,
      "One": 4778,
      "Se": 4779,
      "_)": 4780,
      "life": 4781,
      "nest": 4782,
      "pany": 4783,
      "uel": 4784,
      "inet": 4785,
      "Ġsit": 4786,
      "Ġfun": 4787,
      "isms": 4788,
      "Ġdrew": 4789,
      "Ġdaily": 4790,
      "oming": 4791,
      "amount": 4792,
      "ĠSp": 4793,
      "Ġseized": 4794,
      "Ġexer": 4795,
      "ĠCourt": 4796,
      "ĠHigh": 4797,
      "aked": 4798,
      "fee": 4799,
      "feel": 4800,
      "ivered": 4801,
      "ĠPorter": 4802,
      "ĠNIGHT": 4803,
      "aceans": 4804,
      "exp": 4805,
      "Ġrelative": 4806,
      "Ġpurch": 4807,
      "uthors": 4808,
      "Ġexplain": 4809,
      "boro": 4810,
      "Ġcurious": 4811,
      "Ġwrite": 4812,
      "something": 4813,
      "Ġaccompanied": 4814,
      "coln": 4815,
      "descri": 4816,
      "Ġpapers": 4817,
      "Ġimprove": 4818,
      "Ġsteamer": 4819,
      "Ġresemble": 4820,
      "Ġrepresented": 4821,
      "ĠLeague": 4822,
      "Ġhoped": 4823,
      "Ġbranch": 4824,
      "Ġbranches": 4825,
      "continued": 4826,
      "Ġapplied": 4827,
      "Ġrepeated": 4828,
      "Before": 4829,
      "EMENT": 4830,
      "Ġgloom": 4831,
      "Ġextraordinary": 4832,
      "Ġaverage": 4833,
      "mosphere": 4834,
      "Americ": 4835,
      "Miss": 4836,
      "Some": 4837,
      "UL": 4838,
      "bes": 4839,
      "eight": 4840,
      "miles": 4841,
      "oes": 4842,
      "Ġoffered": 4843,
      "atches": 4844,
      "isher": 4845,
      "Ġcustom": 4846,
      "orious": 4847,
      "Ġinno": 4848,
      "Ġpet": 4849,
      "alities": 4850,
      "Ġnames": 4851,
      "omolog": 4852,
      "rill": 4853,
      "Ġnotice": 4854,
      "Ġexport": 4855,
      "antages": 4856,
      "ĠON": 4857,
      "ĠDav": 4858,
      "Ġspoke": 4859,
      "Ġobst": 4860,
      "Ġsubord": 4861,
      "Ġthence": 4862,
      "Ġcaptain": 4863,
      "Ġassume": 4864,
      "Ġinfinite": 4865,
      "possib": 4866,
      "Ġsmaller": 4867,
      "ĠĠĠĠĠĠĠĠĠĠĠĠĠĠĠĠĠĠĠĠĠĠĠĠĠĠĠĠĠĠĠĠ": 4868,
      "Ġtransition": 4869,
      "Ġconfidence": 4870,
      "Ital": 4871,
      "Ġsays": 4872,
      "TERS": 4873,
      "Ġcompleted": 4874,
      "Ġletters": 4875,
      "Ġoperating": 4876,
      "ĠAlthough": 4877,
      "Ġreports": 4878,
      "Ġapproached": 4879,
      "Ġpayment": 4880,
      "Ġinterests": 4881,
      "Ġsufficiently": 4882,
      "Ġchiefly": 4883,
      "Ġvolume": 4884,
      "Ġprovision": 4885,
      "Ġhostile": 4886,
      "athered": 4887,
      "Ġsuggest": 4888,
      "Ġmajority": 4889,
      "oubtedly": 4890,
      "20": 4891,
      "EE": 4892,
      "fif": 4893,
      "mn": 4894,
      "overy": 4895,
      "rap": 4896,
      "wood": 4897,
      "Ġz": 4898,
      "Ġtest": 4899,
      "inant": 4900,
      "Ġsank": 4901,
      "itors": 4902,
      "Ġcasual": 4903,
      "Ġpun": 4904,
      "asn": 4905,
      "ller": 4906,
      "sea": 4907,
      "ilton": 4908,
      "ĠGl": 4909,
      "unter": 4910,
      "ĠEx": 4911,
      "Ġunion": 4912,
      "Ġdispl": 4913,
      "Ġloose": 4914,
      "auc": 4915,
      "Ġpret": 4916,
      "Ġobtain": 4917,
      "Ġremoved": 4918,
      "Ġcorrect": 4919,
      "Ġattacking": 4920,
      "Ġdefenses": 4921,
      "Ġnecessity": 4922,
      "INT": 4923,
      "emberg": 4924,
      "Ġgradations": 4925,
      "Ġdemon": 4926,
      "Ġsending": 4927,
      "Ġwindow": 4928,
      "Ġindependently": 4929,
      "Ġuniversals": 4930,
      "Ġrocks": 4931,
      "Ġnearer": 4932,
      "ĠWilson": 4933,
      "Ġsleep": 4934,
      "Ġbayon": 4935,
      "Ġfemale": 4936,
      "Ġmagn": 4937,
      "Ġestimated": 4938,
      "Ġessential": 4939,
      "Ġproblem": 4940,
      "Ġconversation": 4941,
      "Ġsafety": 4942,
      "ĠGalicia": 4943,
      "Lee": 4944,
      "bing": 4945,
      "far": 4946,
      "ik": 4947,
      "rine": 4948,
      "Ġteeth": 4949,
      "inities": 4950,
      "Ġbirth": 4951,
      "Ġflying": 4952,
      "orable": 4953,
      "Ġindu": 4954,
      "Ġpush": 4955,
      "icted": 4956,
      "ceive": 4957,
      "thus": 4958,
      "ĠAR": 4959,
      "ĠAbout": 4960,
      "ĠSometimes": 4961,
      "Ġexclus": 4962,
      "iven": 4963,
      "ĠRio": 4964,
      "Ġkn": 4965,
      "Ġcho": 4966,
      "Ġadult": 4967,
      "ĠDonelson": 4968,
      "nex": 4969,
      "Ġunited": 4970,
      "ailed": 4971,
      "aug": 4972,
      "also": 4973,
      "Ġprice": 4974,
      "Ġliable": 4975,
      "ĠKentucky": 4976,
      "Ġrivers": 4977,
      "Ġfinding": 4978,
      "Ġcleared": 4979,
      "Ġestimate": 4980,
      "Ġruns": 4981,
      "rels": 4982,
      "Ġstands": 4983,
      "ibility": 4984,
      "Ġinhabiting": 4985,
      "Ġoccasional": 4986,
      "ĠConfederates": 4987,
      "Ġpressed": 4988,
      "Ġsensations": 4989,
      "course": 4990,
      "Ġcompanies": 4991,
      "complete": 4992,
      "tellig": 4993,
      "Ġrubber": 4994,
      "ĠSavannah": 4995,
      "ĠAppomattox": 4996,
      "25": 4997,
      "IR": 4998,
      "Sec": 4999,
      "lav": 5000,
      "making": 5001,
      "path": 5002,
      "inv": 5003,
      "Ġwarships": 5004,
      "Ġscre": 5005,
      "Ġbroad": 5006,
      "Ġcand": 5007,
      "Ġho": 5008,
      "Ġinev": 5009,
      "alking": 5010,
      "Ġthoroughly": 5011,
      "Ġnational": 5012,
      "Ġbearing": 5013,
      "urious": 5014,
      "owing": 5015,
      "iration": 5016,
      "Ġascertain": 5017,
      "acle": 5018,
      "abor": 5019,
      "ĠGor": 5020,
      "ĠGovernments": 5021,
      "ulate": 5022,
      "ĠCont": 5023,
      "ĠCape": 5024,
      "ĠHo": 5025,
      "aped": 5026,
      "ĠWor": 5027,
      "ĠRed": 5028,
      "result": 5029,
      "Ġfeed": 5030,
      "ounds": 5031,
      "plus": 5032,
      "ĠThird": 5033,
      "Ġtrust": 5034,
      "Ġknows": 5035,
      "Ġrifle": 5036,
      "Ġcompens": 5037,
      "Ġcorner": 5038,
      "Ġassumed": 5039,
      "Ġyourself": 5040,
      "Ġpurposes": 5041,
      "ampaign": 5042,
      "Ġcapturing": 5043,
      "Ġjustice": 5044,
      "ĠTurkey": 5045,
      "Ġshowing": 5046,
      "Ġevident": 5047,
      "Ġoccupation": 5048,
      "Ġhorror": 5049,
      "Ġfields": 5050,
      "Ġwriter": 5051,
      "Chapter": 5052,
      "world": 5053,
      "Ġreinforced": 5054,
      "Ġelement": 5055,
      "Ġplayed": 5056,
      "Ġfailure": 5057,
      "whole": 5058,
      "Ġbadly": 5059,
      "Ġsexual": 5060,
      "Ġmerchant": 5061,
      "Ġveget": 5062,
      "airo": 5063,
      "Ġwithdrawn": 5064,
      "Ġconverted": 5065,
      "probably": 5066,
      "Ġconstructed": 5067,
      "Ġdecisive": 5068,
      "pelago": 5069,
      "Illustration": 5070,
      "21": 5071,
      "case": 5072,
      "cavalry": 5073,
      "miss": 5074,
      "past": 5075,
      "taking": 5076,
      "hel": 5077,
      "Ġfitted": 5078,
      "isc": 5079,
      "Ġpot": 5080,
      "Ġdiv": 5081,
      "Ġdang": 5082,
      "Ġdouble": 5083,
      "Ġthrew": 5084,
      "second": 5085,
      "ĠTr": 5086,
      "charge": 5087,
      "chburg": 5088,
      "Ġhealth": 5089,
      "Ġant": 5090,
      "ĠSouthern": 5091,
      "abod": 5092,
      "Ġconven": 5093,
      "ĠHung": 5094,
      "Ġshut": 5095,
      "ouring": 5096,
      "umm": 5097,
      "acked": 5098,
      "offee": 5099,
      "ĠNever": 5100,
      "Ġagg": 5101,
      "closed": 5102,
      "Ġshell": 5103,
      "rents": 5104,
      "Ġfarm": 5105,
      "attempt": 5106,
      "ĠChick": 5107,
      "Ġconfront": 5108,
      "encies": 5109,
      "Ġevidently": 5110,
      "Ġsettled": 5111,
      "Ġcutting": 5112,
      "related": 5113,
      "Ġmarine": 5114,
      "Ġparagraph": 5115,
      "Ġsilence": 5116,
      "Ġdepends": 5117,
      "Ġbattery": 5118,
      "Ġbenefit": 5119,
      "OMM": 5120,
      "Ġcruiser": 5121,
      "Ġheavily": 5122,
      "ĠBelgium": 5123,
      "Ġsafely": 5124,
      "officers": 5125,
      "Ġdream": 5126,
      "ĠTeutons": 5127,
      "Ġemployed": 5128,
      "ynchburg": 5129,
      "Ġtrouble": 5130,
      "acquain": 5131,
      "Ġlanguage": 5132,
      "Ġpriori": 5133,
      "Ġstrictly": 5134,
      "Second": 5135,
      "KS": 5136,
      "bu": 5137,
      "both": 5138,
      "given": 5139,
      "ien": 5140,
      "iance": 5141,
      "latter": 5142,
      "mach": 5143,
      "yal": 5144,
      "Ġtail": 5145,
      "Ġtrem": 5146,
      "reached": 5147,
      "Ġwid": 5148,
      "Ġsaved": 5149,
      "Ġcab": 5150,
      "Ġmiss": 5151,
      "Ġhat": 5152,
      "Ġdress": 5153,
      "Ġlately": 5154,
      "ldom": 5155,
      "Ġhero": 5156,
      "Ġhence": 5157,
      "Ġseason": 5158,
      "ĠBanks": 5159,
      "ills": 5160,
      "ulars": 5161,
      "Ġallies": 5162,
      "Ġ100": 5163,
      "Ġarmed": 5164,
      "ĠRidge": 5165,
      "âĢĺ": 5166,
      "ĠPass": 5167,
      "ĠPrussi": 5168,
      "ĠLet": 5169,
      "inding": 5170,
      "ĠDes": 5171,
      "Ġyouth": 5172,
      "Ġsupplied": 5173,
      "Ġsubsequently": 5174,
      "orders": 5175,
      "Ġentertain": 5176,
      "bles": 5177,
      "Ġyellow": 5178,
      "Ġlanded": 5179,
      "Ġconsidering": 5180,
      "common": 5181,
      "apel": 5182,
      "Ġstarting": 5183,
      "relation": 5184,
      "Ġrequest": 5185,
      "structure": 5186,
      "Ġinteresting": 5187,
      "strong": 5188,
      "Ġpursued": 5189,
      "Ġpersonal": 5190,
      "numerable": 5191,
      "Ġsteamers": 5192,
      "advantage": 5193,
      "generally": 5194,
      "Ġgrowing": 5195,
      "Ġprevented": 5196,
      "Ġedge": 5197,
      "Ġbeneath": 5198,
      "Ġpenet": 5199,
      "ĠProfessor": 5200,
      "represent": 5201,
      "Ġpreceding": 5202,
      "Ġphr": 5203,
      "OVEMENT": 5204,
      "individuals": 5205,
      "ĠLincoln": 5206,
      ".]": 5207,
      ":--": 5208,
      "CE": 5209,
      "Eng": 5210,
      "Gr": 5211,
      "Mc": 5212,
      "MAN": 5213,
      "VI": 5214,
      "ek": 5215,
      "epend": 5216,
      "fire": 5217,
      "kes": 5218,
      "lines": 5219,
      "ns": 5220,
      "prom": 5221,
      "rical": 5222,
      "test": 5223,
      "twenty": 5224,
      "yes": 5225,
      "Ġaim": 5226,
      "Ġsought": 5227,
      "onto": 5228,
      "Ġbes": 5229,
      "Ġbul": 5230,
      "Ġcultiv": 5231,
      "along": 5232,
      "alions": 5233,
      "ads": 5234,
      "Ġlie": 5235,
      "ids": 5236,
      "ĠAss": 5237,
      "Ġseldom": 5238,
      "ĠGold": 5239,
      "Ġexternal": 5240,
      "ĠCairo": 5241,
      "ĠMal": 5242,
      "ĠHunter": 5243,
      "arden": 5244,
      "Ġcommission": 5245,
      "aching": 5246,
      "Ġusing": 5247,
      "ĠStation": 5248,
      "Ġwarfare": 5249,
      "Ġrelieve": 5250,
      "Ġofficial": 5251,
      "Ġsecured": 5252,
      "restrial": 5253,
      "ouncil": 5254,
      "Ġconfl": 5255,
      "Ġreceiving": 5256,
      "habited": 5257,
      "Ġarrive": 5258,
      "Ġcentral": 5259,
      "Ġdegrees": 5260,
      "Ġdomestication": 5261,
      "Ġlimbs": 5262,
      "Ġmemory": 5263,
      "Ġfertil": 5264,
      "igeons": 5265,
      "Ġpractically": 5266,
      "Ġbringing": 5267,
      "Ġtempor": 5268,
      "Ġconvinced": 5269,
      "Ġbuilding": 5270,
      "Ġwoman": 5271,
      "Ġaccepted": 5272,
      "destroy": 5273,
      "chipelago": 5274,
      "ĠAgain": 5275,
      "Ġannounced": 5276,
      "Ġanalogous": 5277,
      "illiam": 5278,
      "Ġobliged": 5279,
      "Ġremembered": 5280,
      "OP": 5281,
      "ares": 5282,
      "bird": 5283,
      "circ": 5284,
      "fert": 5285,
      "give": 5286,
      "half": 5287,
      "houses": 5288,
      "nor": 5289,
      "pers": 5290,
      "rs": 5291,
      "run": 5292,
      "sometimes": 5293,
      "Ġwall": 5294,
      "Ġwax": 5295,
      "Ġsacrific": 5296,
      "Ġbanks": 5297,
      "eded": 5298,
      "Ġinside": 5299,
      "Ġdread": 5300,
      "Ġnon": 5301,
      "Ġlies": 5302,
      "Ġretain": 5303,
      "ĠTwenty": 5304,
      "chabod": 5305,
      "Ġash": 5306,
      "ĠAccording": 5307,
      "ĠBig": 5308,
      "aphed": 5309,
      "iend": 5310,
      "arded": 5311,
      "took": 5312,
      "ĠRosecrans": 5313,
      "ĠFl": 5314,
      "ĠPowers": 5315,
      "avig": 5316,
      "ĠOx": 5317,
      "ĠLogan": 5318,
      "Ġcannon": 5319,
      "nearly": 5320,
      "Ġclos": 5321,
      "Ġdisuse": 5322,
      "Ġdisappeared": 5323,
      "sold": 5324,
      "ĠVistula": 5325,
      "Ġdistur": 5326,
      "Ġsubsequent": 5327,
      "prote": 5328,
      "Ġliber": 5329,
      "compl": 5330,
      "Ġstrate": 5331,
      "Ġ37": 5332,
      "ĠKno": 5333,
      "Ġinterior": 5334,
      "Ġoffice": 5335,
      "ĠYpres": 5336,
      "ĠYork": 5337,
      "Ġ185": 5338,
      "commun": 5339,
      "Ġdelivered": 5340,
      "Ġoccupy": 5341,
      "obser": 5342,
      "Ġminor": 5343,
      "disc": 5344,
      "works": 5345,
      "ĠGrant": 5346,
      "Ġcrust": 5347,
      "Ġbeliefs": 5348,
      "itzer": 5349,
      "Ġfreely": 5350,
      "Ġutterly": 5351,
      "Ġmillions": 5352,
      "morning": 5353,
      "Ġreconno": 5354,
      "appearance": 5355,
      "break": 5356,
      "Ġobvious": 5357,
      "TUR": 5358,
      "avery": 5359,
      "came": 5360,
      "ded": 5361,
      "lin": 5362,
      "lers": 5363,
      "mal": 5364,
      "parent": 5365,
      "uation": 5366,
      "worth": 5367,
      "Ã©": 5368,
      "atum": 5369,
      "Ġfier": 5370,
      "Ġfright": 5371,
      "Ġfishes": 5372,
      "Ġpred": 5373,
      "already": 5374,
      "Ġunt": 5375,
      "ilst": 5376,
      "Ġattended": 5377,
      "Ġextend": 5378,
      "osen": 5379,
      "ĠNatural": 5380,
      "ĠDun": 5381,
      "ĠDepartment": 5382,
      "Ġaffected": 5383,
      "Ġaffection": 5384,
      "Ġattached": 5385,
      "Ġjunction": 5386,
      "Ġwherever": 5387,
      "Ġaccident": 5388,
      "icked": 5389,
      "Ġnights": 5390,
      "lections": 5391,
      "bridge": 5392,
      "Ġlesser": 5393,
      "Ġrecol": 5394,
      "Ġstead": 5395,
      "Ġclean": 5396,
      "Ġsecondary": 5397,
      "Ġspeech": 5398,
      "EST": 5399,
      "themselves": 5400,
      "boat": 5401,
      "supplies": 5402,
      "occasion": 5403,
      "Ġkeeping": 5404,
      "Ġfigures": 5405,
      "ifying": 5406,
      "Ġmeaning": 5407,
      "guns": 5408,
      "operation": 5409,
      "shells": 5410,
      "Ġvarying": 5411,
      "ĠReg": 5412,
      "Ġdepartment": 5413,
      "corps": 5414,
      "Ġfamiliar": 5415,
      "whether": 5416,
      "Ġconduct": 5417,
      "Ġcomparatively": 5418,
      "mistice": 5419,
      "Ġsatisfied": 5420,
      "Ġbasis": 5421,
      "Ġcredit": 5422,
      "Ġwitness": 5423,
      "Ġfruit": 5424,
      "ĠLongstreet": 5425,
      "inhabitants": 5426,
      "ĠBulgaria": 5427,
      "Mississippi": 5428,
      "Ind": 5429,
      "London": 5430,
      "River": 5431,
      "aith": 5432,
      "fin": 5433,
      "fighting": 5434,
      "iency": 5435,
      "hem": 5436,
      "hend": 5437,
      "Ġacted": 5438,
      "Ġson": 5439,
      "enes": 5440,
      "Ġbeds": 5441,
      "Ġfly": 5442,
      "isers": 5443,
      "Ġmental": 5444,
      "Ġpage": 5445,
      "lex": 5446,
      "Ġbegun": 5447,
      "vey": 5448,
      "ctrine": 5449,
      "Ġgreen": 5450,
      "Ġgrey": 5451,
      "urred": 5452,
      "third": 5453,
      "tering": 5454,
      "ĠSim": 5455,
      "ĠBatt": 5456,
      "emb": 5457,
      "aba": 5458,
      "olution": 5459,
      "Ġvic": 5460,
      "apse": 5461,
      "Ġarise": 5462,
      "ags": 5463,
      "respect": 5464,
      "Ġimperfect": 5465,
      "forces": 5466,
      "Ġaffect": 5467,
      "Ġloaded": 5468,
      "Ġdiff": 5469,
      "Ġprec": 5470,
      "Ġobsc": 5471,
      "Ġflight": 5472,
      "Ġconsisted": 5473,
      "nothing": 5474,
      "Ġ36": 5475,
      "Ġseek": 5476,
      "Ġbelieves": 5477,
      "Ġexists": 5478,
      "Ġ184": 5479,
      "Ġrecently": 5480,
      "ologists": 5481,
      "Ġstreams": 5482,
      "Ġfinancial": 5483,
      "Ġproperly": 5484,
      "Ġcenter": 5485,
      "Ġhappen": 5486,
      "Ġannual": 5487,
      "Ġretreated": 5488,
      "ĠMissouri": 5489,
      "Ġcommunications": 5490,
      "ĠCarpath": 5491,
      "Ġpressure": 5492,
      "Ġraise": 5493,
      "Ġengagements": 5494,
      "Ġcalm": 5495,
      "Ġfrequent": 5496,
      "mington": 5497,
      "Ġdiscussed": 5498,
      "successful": 5499,
      "Ġlady": 5500,
      "Confeder": 5501,
      "Ġtelegraph": 5502,
      "Ġderived": 5503,
      "Ġconsequence": 5504,
      "Ġanxious": 5505,
      "ĠMinister": 5506,
      "Ġpermanent": 5507,
      "Ġbrigades": 5508,
      "immediately": 5509,
      "Ġdedu": 5510,
      "Ag": 5511,
      "PAR": 5512,
      "doubt": 5513,
      "gone": 5514,
      "hips": 5515,
      "marked": 5516,
      "railroad": 5517,
      "tru": 5518,
      "xville": 5519,
      "yet": 5520,
      "Ġtact": 5521,
      "Ġauthors": 5522,
      "Ġod": 5523,
      "Ġwreck": 5524,
      "Ġsake": 5525,
      "enge": 5526,
      "enance": 5527,
      "Ġfreed": 5528,
      "Ġfunction": 5529,
      "iced": 5530,
      "stock": 5531,
      "Ġreve": 5532,
      "Ġrevers": 5533,
      "Ġretained": 5534,
      "ths": 5535,
      "ĠBrown": 5536,
      "ulations": 5537,
      "Ġexports": 5538,
      "Ġexchange": 5539,
      "pping": 5540,
      "Ġproof": 5541,
      "manner": 5542,
      "oses": 5543,
      "Ġmeas": 5544,
      "Ġalive": 5545,
      "ofield": 5546,
      "ĠEmp": 5547,
      "oken": 5548,
      "Ġloved": 5549,
      "Ġspr": 5550,
      "except": 5551,
      "Ġvaried": 5552,
      "Ġbecoming": 5553,
      "Ġapply": 5554,
      "Ġappointed": 5555,
      "ĠKr": 5556,
      "Ġrights": 5557,
      "Ġconstruction": 5558,
      "Ġattempts": 5559,
      "Ġclassification": 5560,
      "Ġprincipal": 5561,
      "Ġtears": 5562,
      "Ġglad": 5563,
      "Ġmarks": 5564,
      "ĠBeach": 5565,
      "Ġannually": 5566,
      "Ġtransportation": 5567,
      "Ġdropped": 5568,
      "Ġtruths": 5569,
      "Ġsweep": 5570,
      "cannot": 5571,
      "Ġpreviously": 5572,
      "Ġwithdrew": 5573,
      "Ġneighb": 5574,
      "Ġpossibility": 5575,
      "Ġtreated": 5576,
      "Ġrarely": 5577,
      "followed": 5578,
      "similar": 5579,
      "existence": 5580,
      "ĠHamilton": 5581,
      "Ġcompetition": 5582,
      "ĠGeorgia": 5583,
      "ĠAustralia": 5584,
      "Ġintroduced": 5585,
      "Ġarrangement": 5586,
      "ĠColumbus": 5587,
      "Ġquantity": 5588,
      "Ġurged": 5589,
      "ĠClerval": 5590,
      "Ġconfronting": 5591,
      "About": 5592,
      "His": 5593,
      "Me": 5594,
      "Now": 5595,
      "author": 5596,
      "cur": 5597,
      "cher": 5598,
      "draw": 5599,
      "fling": 5600,
      "hm": 5601,
      "ham": 5602,
      "hundred": 5603,
      "iety": 5604,
      "rous": 5605,
      "sense": 5606,
      "wed": 5607,
      "itts": 5608,
      "Ġfing": 5609,
      "Ġcatch": 5610,
      "Ġponto": 5611,
      "although": 5612,
      "Ġduck": 5613,
      "Ġlose": 5614,
      "separ": 5615,
      "imp": 5616,
      "Ġforget": 5617,
      "thened": 5618,
      "ilitary": 5619,
      "Ġstorm": 5620,
      "ĠSu": 5621,
      "iest": 5622,
      "Ġrad": 5623,
      "Ġraw": 5624,
      "opes": 5625,
      "usi": 5626,
      "Ġsoil": 5627,
      "ĠFerry": 5628,
      "aste": 5629,
      "Ġmanif": 5630,
      "tebr": 5631,
      "ĠLy": 5632,
      "ĠLynchburg": 5633,
      "former": 5634,
      "deg": 5635,
      "Ġclot": 5636,
      "ĠIts": 5637,
      "ĠThose": 5638,
      "Ġattract": 5639,
      "Ġoverlook": 5640,
      "Ġamb": 5641,
      "Ġdesert": 5642,
      "Ġprint": 5643,
      "compar": 5644,
      "princi": 5645,
      "prisoners": 5646,
      "Ġslaves": 5647,
      "Ġsurplus": 5648,
      "short": 5649,
      "Ġtruly": 5650,
      "Ġcontinually": 5651,
      "Ġ40": 5652,
      "Ġinvol": 5653,
      "Ġinvasion": 5654,
      "Ġexplos": 5655,
      "Ġdominant": 5656,
      "Ġleads": 5657,
      "evidence": 5658,
      "Ġsumm": 5659,
      "Ġlimits": 5660,
      "Ġgeographical": 5661,
      "Ġpopular": 5662,
      "advance": 5663,
      "Ġphilosophers": 5664,
      "Ġsurprised": 5665,
      "IGN": 5666,
      "Ġpickets": 5667,
      "Ġstationed": 5668,
      "Ġimagination": 5669,
      "ĠBelgian": 5670,
      "Ġmeantime": 5671,
      "Ġconcealed": 5672,
      "Ġfatal": 5673,
      "Ġpromptly": 5674,
      "AMP": 5675,
      "captured": 5676,
      "Ġstraight": 5677,
      "Ġisolated": 5678,
      "developed": 5679,
      "Ġsimultaneously": 5680,
      "11": 5681,
      "DER": 5682,
      "Tennessee": 5683,
      "die": 5684,
      "fil": 5685,
      "friend": 5686,
      "gence": 5687,
      "high": 5688,
      "oving": 5689,
      "Ġtum": 5690,
      "Ġach": 5691,
      "inner": 5692,
      "Ġbare": 5693,
      "Ġbright": 5694,
      "Ġcir": 5695,
      "oring": 5696,
      "Ġmed": 5697,
      "Ġhit": 5698,
      "Ġhal": 5699,
      "asters": 5700,
      "Ġdig": 5701,
      "stre": 5702,
      "Ġemer": 5703,
      "ented": 5704,
      "Ġreven": 5705,
      "Ġgay": 5706,
      "ille": 5707,
      "ĠSal": 5708,
      "emn": 5709,
      "Ġconclude": 5710,
      "eston": 5711,
      "Ġranks": 5712,
      "Ġvain": 5713,
      "Ġnegot": 5714,
      "allied": 5715,
      "uming": 5716,
      "Ġenl": 5717,
      "ĠLake": 5718,
      "pton": 5719,
      "Ġadop": 5720,
      "Ġnoon": 5721,
      "Ġunfortun": 5722,
      "Ġloyal": 5723,
      "aunt": 5724,
      "udd": 5725,
      "Ġresources": 5726,
      "duke": 5727,
      "Ġadvantages": 5728,
      "Ġembr": 5729,
      "Ġprobability": 5730,
      "Ġturning": 5731,
      "Ġdiscovery": 5732,
      "Ġfortifications": 5733,
      "Ġsettle": 5734,
      "Ġoperation": 5735,
      "ĠAlp": 5736,
      "Ġpersu": 5737,
      "Ġtea": 5738,
      "relations": 5739,
      "Ġskill": 5740,
      "capable": 5741,
      "ribute": 5742,
      "Ġwriting": 5743,
      "Ġstrike": 5744,
      "ĠAnna": 5745,
      "Ġeighteen": 5746,
      "----------------": 5747,
      "Ġwoods": 5748,
      "ITY": 5749,
      "Ġsituated": 5750,
      "Ġaffinities": 5751,
      "himself": 5752,
      "Ġdistricts": 5753,
      "importance": 5754,
      "Ġcontrary": 5755,
      "Ġadditional": 5756,
      "Ġrebels": 5757,
      "morrow": 5758,
      "Ġaccumulated": 5759,
      "characters": 5760,
      "Ġliter": 5761,
      "Ġmentioned": 5762,
      "anglements": 5763,
      "Ġwrong": 5764,
      "ĠLookout": 5765,
      "Ġbayonet": 5766,
      "ittsburg": 5767,
      "Aust": 5768,
      "How": 5769,
      "Re": 5770,
      "dri": 5771,
      "done": 5772,
      "hall": 5773,
      "iable": 5774,
      "ihil": 5775,
      "ka": 5776,
      "ky": 5777,
      "kow": 5778,
      "lost": 5779,
      "name": 5780,
      "oard": 5781,
      "tes": 5782,
      "tiary": 5783,
      "vÃ¦": 5784,
      "Ã¤": 5785,
      "Ã¼": 5786,
      "Ġtale": 5787,
      "Ġtalk": 5788,
      "itate": 5789,
      "iture": 5790,
      "Ġcried": 5791,
      "Ġcoffee": 5792,
      "ora": 5793,
      "Ġharm": 5794,
      "Ġped": 5795,
      "asp": 5796,
      "seven": 5797,
      "Ġrele": 5798,
      "urd": 5799,
      "Ġwhilst": 5800,
      "chduke": 5801,
      "Ġasking": 5802,
      "Ġattend": 5803,
      "Ġatmosphere": 5804,
      "Ġstore": 5805,
      "Ġseas": 5806,
      "Ġwheel": 5807,
      "ĠRuman": 5808,
      "ĠFelix": 5809,
      "ĠFisher": 5810,
      "Ġaltogether": 5811,
      "Ġencount": 5812,
      "igs": 5813,
      "agram": 5814,
      "Ġwilling": 5815,
      "assault": 5816,
      "Ġdozen": 5817,
      "Ġunus": 5818,
      "cipro": 5819,
      "Ġprecise": 5820,
      "contr": 5821,
      "ighth": 5822,
      "Ġretired": 5823,
      "Ġ39": 5824,
      "Ġblank": 5825,
      "Ġended": 5826,
      "ipoli": 5827,
      "ĠOnly": 5828,
      "Ġterrible": 5829,
      "Ġcertainty": 5830,
      "itherto": 5831,
      "Ġboard": 5832,
      "Ġlooks": 5833,
      "Ġconsiderations": 5834,
      "Ġolder": 5835,
      "loss": 5836,
      "liest": 5837,
      "Ġheads": 5838,
      "Ġfortun": 5839,
      "ĠSelection": 5840,
      "ĠSecretary": 5841,
      "Ġinvolved": 5842,
      "Ġdriving": 5843,
      "ĠSoon": 5844,
      "annel": 5845,
      "conscious": 5846,
      "Ġswept": 5847,
      "Ġcovering": 5848,
      "Ġdarkness": 5849,
      "Ġmidnight": 5850,
      "Ġeduc": 5851,
      "extreme": 5852,
      "Ġarranged": 5853,
      "become": 5854,
      "ĠCanad": 5855,
      "Ġsexes": 5856,
      "Ġsuffering": 5857,
      "Ġfavorable": 5858,
      "ĠWilmington": 5859,
      "Ġincident": 5860,
      "ATIONS": 5861,
      "Ġpicture": 5862,
      "Ġcottage": 5863,
      "towards": 5864,
      "ĠARM": 5865,
      "ĠKnoxville": 5866,
      "Ġencountered": 5867,
      "?âĢĿ": 5868,
      "GE": 5869,
      "IES": 5870,
      "Let": 5871,
      "Pe": 5872,
      "bal": 5873,
      "brought": 5874,
      "cases": 5875,
      "la": 5876,
      "writ": 5877,
      "zs": 5878,
      "Ġtry": 5879,
      "heart": 5880,
      "Ġtheat": 5881,
      "erv": 5882,
      "atitude": 5883,
      "Ġbot": 5884,
      "itch": 5885,
      "Ġcaut": 5886,
      "Ġcaught": 5887,
      "esc": 5888,
      "Ġmember": 5889,
      "Ġhall": 5890,
      "Ġinnumerable": 5891,
      "Ġinhabited": 5892,
      "Ġnamed": 5893,
      "urance": 5894,
      "ĠTex": 5895,
      "Ġstig": 5896,
      "Ġexceeding": 5897,
      "estab": 5898,
      "Ġsociety": 5899,
      "aven": 5900,
      "Ġabrupt": 5901,
      "ĠOther": 5902,
      "Ġcommer": 5903,
      "asses": 5904,
      "determ": 5905,
      "derer": 5906,
      "Ġagreed": 5907,
      "Ġdiss": 5908,
      "ciation": 5909,
      "Ġdaylight": 5910,
      "Ġcommands": 5911,
      "ords": 5912,
      "iana": 5913,
      "Ġcollect": 5914,
      "Ġsentences": 5915,
      "Ġtakes": 5916,
      "Ġdirections": 5917,
      "Ġemp": 5918,
      "Ġreadily": 5919,
      "Ġfourteen": 5920,
      "Ġhereafter": 5921,
      "Ġsteel": 5922,
      "commend": 5923,
      "Ġcommonly": 5924,
      "Ġsixteen": 5925,
      "termaster": 5926,
      "Ġmounted": 5927,
      "Ġpowerful": 5928,
      "engers": 5929,
      "Ġlights": 5930,
      "sects": 5931,
      "Ġgradual": 5932,
      "ysz": 5933,
      "descend": 5934,
      "Ġadmin": 5935,
      "offensive": 5936,
      "Ġburst": 5937,
      "Ġjudgement": 5938,
      "whel": 5939,
      "Ġbooks": 5940,
      "orphic": 5941,
      "carried": 5942,
      "Ġmigration": 5943,
      "claimed": 5944,
      "groups": 5945,
      "omologous": 5946,
      "ĠDavis": 5947,
      "ĠGlacial": 5948,
      "aucas": 5949,
      "Ġconflict": 5950,
      "BATTLE": 5951,
      "Ge": 5952,
      "MENT": 5953,
      "OO": 5954,
      "OW": 5955,
      "Pro": 5956,
      "SHER": 5957,
      "raid": 5958,
      "ucted": 5959,
      "yle": 5960,
      "zy": 5961,
      "Ġener": 5962,
      "iner": 5963,
      "Ġwished": 5964,
      "nding": 5965,
      "itic": 5966,
      "itated": 5967,
      "Ġfaces": 5968,
      "Ġcry": 5969,
      "Ġcraft": 5970,
      "Ġhosp": 5971,
      "Ġhuge": 5972,
      "Ġpair": 5973,
      "ica": 5974,
      "oms": 5975,
      "ĠIchabod": 5976,
      "Ġgathered": 5977,
      "urian": 5978,
      "chan": 5979,
      "Ġanswe": 5980,
      "ĠSur": 5981,
      "ĠSam": 5982,
      "Ġsusp": 5983,
      "Ġseize": 5984,
      "acific": 5985,
      "ĠBol": 5986,
      "ĠBru": 5987,
      "Ġcontain": 5988,
      "ols": 5989,
      "opl": 5990,
      "Ġproc": 5991,
      "Ġpropos": 5992,
      "Ġshores": 5993,
      "ĠRoyal": 5994,
      "astic": 5995,
      "pecies": 5996,
      "Ġchosen": 5997,
      "agon": 5998,
      "ĠLemberg": 5999,
      "period": 6000,
      "Ġparties": 6001,
      "experi": 6002,
      "Ġshel": 6003,
      "ueen": 6004,
      "Ġconsol": 6005,
      "Ġretire": 6006,
      "Ġ38": 6007,
      "Ġterrestrial": 6008,
      "ships": 6009,
      "Ġscattered": 6010,
      "Ġactivity": 6011,
      "Ġbreaking": 6012,
      "Ġobjective": 6013,
      "Ġspeaking": 6014,
      "Ġchanging": 6015,
      "ĠFrank": 6016,
      "Ġincreasing": 6017,
      "aneous": 6018,
      "Here": 6019,
      "Ġlimit": 6020,
      "ĠIndeed": 6021,
      "Ġexperienced": 6022,
      "axim": 6023,
      "Ġadmiral": 6024,
      "Ġlovely": 6025,
      "submar": 6026,
      "Ġpracticable": 6027,
      "operate": 6028,
      "Ġpicked": 6029,
      "Ġcompanion": 6030,
      "Ġcomparison": 6031,
      "Ġbitter": 6032,
      "Ġobjections": 6033,
      "joining": 6034,
      "Ġconnecting": 6035,
      "ĠJustine": 6036,
      "ĠSerb": 6037,
      "ĠMoreover": 6038,
      "Ġexhausted": 6039,
      "itzerland": 6040,
      "zsok": 6041,
      "Ġanswered": 6042,
      "De": 6043,
      "Er": 6044,
      "IF": 6045,
      "She": 6046,
      "bly": 6047,
      "fish": 6048,
      "hard": 6049,
      "ipt": 6050,
      "ociated": 6051,
      "inople": 6052,
      "instru": 6053,
      "reement": 6054,
      "received": 6055,
      "Ġwound": 6056,
      "erts": 6057,
      "Ġcop": 6058,
      "Ġmad": 6059,
      "Ġpos": 6060,
      "roll": 6061,
      "Ġnavig": 6062,
      "Ġbeg": 6063,
      "adru": 6064,
      "Ġlinks": 6065,
      "ĠIan": 6066,
      "Ġgig": 6067,
      "ira": 6068,
      "Ġassem": 6069,
      "ĠST": 6070,
      "Ġsust": 6071,
      "Ġsecret": 6072,
      "Ġnotified": 6073,
      "ĠGu": 6074,
      "ĠGreen": 6075,
      "Ġconqu": 6076,
      "Ġrising": 6077,
      "Ġvan": 6078,
      "Ġshad": 6079,
      "ĠWood": 6080,
      "ĠRh": 6081,
      "Ġabroad": 6082,
      "Ġplate": 6083,
      "rency": 6084,
      "Ġimper": 6085,
      "aret": 6086,
      "plied": 6087,
      "places": 6088,
      "Ġdog": 6089,
      "Ġdogs": 6090,
      "Ġdoctrine": 6091,
      "clined": 6092,
      "Ġperform": 6093,
      "super": 6094,
      "ailing": 6095,
      "Ġrode": 6096,
      "conc": 6097,
      "udson": 6098,
      "Ġqualities": 6099,
      "Ġflat": 6100,
      "Ġfles": 6101,
      "Ġdistinction": 6102,
      "Ġsubjected": 6103,
      "attery": 6104,
      "everal": 6105,
      "prings": 6106,
      "Ġrelig": 6107,
      "Ġ31": 6108,
      "Ġcoloured": 6109,
      "Ġendure": 6110,
      "shall": 6111,
      "athers": 6112,
      "ipping": 6113,
      "Ġstandard": 6114,
      "uckoo": 6115,
      "Ġtowns": 6116,
      "Ġrefused": 6117,
      "Chattanooga": 6118,
      "regular": 6119,
      "ĠPrime": 6120,
      "Ġcareful": 6121,
      "slight": 6122,
      "Ġpleasant": 6123,
      "Ġtrifling": 6124,
      "stantinople": 6125,
      "ĠIslands": 6126,
      "Ġusual": 6127,
      "Ġaccomplish": 6128,
      "IDAN": 6129,
      "Ġsolemn": 6130,
      "iffs": 6131,
      "Ġtelegraphed": 6132,
      "horse": 6133,
      "ĠMountain": 6134,
      "famil": 6135,
      "Ġthreads": 6136,
      "Ġwretched": 6137,
      "Ġrenewed": 6138,
      "Ġsubordinate": 6139,
      "Ġphrase": 6140,
      "Ġashore": 6141,
      "Ġvicinity": 6142,
      "BUR": 6143,
      "Cor": 6144,
      "John": 6145,
      "Our": 6146,
      "VAN": 6147,
      "batt": 6148,
      "battle": 6149,
      "bomb": 6150,
      "government": 6151,
      "oon": 6152,
      "pigeon": 6153,
      "rt": 6154,
      "za": 6155,
      "het": 6156,
      "Ġaud": 6157,
      "Ġaston": 6158,
      "ini": 6159,
      "real": 6160,
      "reys": 6161,
      "Ġspl": 6162,
      "Ġsinking": 6163,
      "Ġbased": 6164,
      "Ġfate": 6165,
      "Ġfiend": 6166,
      "anes": 6167,
      "orrain": 6168,
      "Ġmule": 6169,
      "arity": 6170,
      "Ġhide": 6171,
      "Ġintellig": 6172,
      "Ġbeach": 6173,
      "Ġlake": 6174,
      "vet": 6175,
      "oty": 6176,
      "uration": 6177,
      "owina": 6178,
      "things": 6179,
      "ando": 6180,
      "ilarly": 6181,
      "riage": 6182,
      "amental": 6183,
      "Ġants": 6184,
      "Ġantic": 6185,
      "ĠAnt": 6186,
      "Ġhaunt": 6187,
      "ĠBalt": 6188,
      "ĠMission": 6189,
      "istration": 6190,
      "Ġard": 6191,
      "ĠFinally": 6192,
      "elf": 6193,
      "plants": 6194,
      "defe": 6195,
      "oked": 6196,
      "ficial": 6197,
      "Ġperceived": 6198,
      "Ġdise": 6199,
      "Ġquality": 6200,
      "Ġresist": 6201,
      "Ġresolved": 6202,
      "soon": 6203,
      "Ġfled": 6204,
      "ĠVA": 6205,
      "Ġsupplant": 6206,
      "Ġsupposing": 6207,
      "proved": 6208,
      "Ġentering": 6209,
      "Ġentrance": 6210,
      "Ġindust": 6211,
      "roads": 6212,
      "tsylvania": 6213,
      "vention": 6214,
      "Ġintention": 6215,
      "Ġfourth": 6216,
      "Ġconfusion": 6217,
      "Ġholds": 6218,
      "Ġdelicate": 6219,
      "APTUR": 6220,
      "ĠForrest": 6221,
      "Ġcentury": 6222,
      "Ġparape": 6223,
      "Ġsky": 6224,
      "hiloh": 6225,
      "ibly": 6226,
      "Ġreflect": 6227,
      "Ġretreating": 6228,
      "Ġtransported": 6229,
      "Ġdetermine": 6230,
      "Ġillust": 6231,
      "Ġ1865": 6232,
      "Ġspirits": 6233,
      "Ġpeninsula": 6234,
      "Ġissue": 6235,
      "ĠCanby": 6236,
      "Ġsounds": 6237,
      "Ġdebt": 6238,
      "Ġsurrounding": 6239,
      "Russians": 6240,
      "passed": 6241,
      "Ġpreservation": 6242,
      "ukowina": 6243,
      "Ġmarket": 6244,
      "Ġafforded": 6245,
      "ĠGrande": 6246,
      "vision": 6247,
      "pottsylvania": 6248,
      "Ġwaiting": 6249,
      "Ġvigor": 6250,
      "Turkish": 6251,
      "years": 6252,
      "Ġoceanic": 6253,
      "Ġaccordance": 6254,
      "property": 6255,
      "Ġservices": 6256,
      "Ġcasualties": 6257,
      "Ġcandid": 6258,
      "ĠNevertheless": 6259,
      ".'": 6260,
      "40": 6261,
      "President": 6262,
      "RES": 6263,
      "UN": 6264,
      "_;": 6265,
      "aure": 6266,
      "aired": 6267,
      "band": 6268,
      "gw": 6269,
      "post": 6270,
      "rank": 6271,
      "spe": 6272,
      "uve": 6273,
      "xes": 6274,
      "Ġtre": 6275,
      "Ġtax": 6276,
      "inces": 6277,
      "inery": 6278,
      "infantry": 6279,
      "rein": 6280,
      "Ġwalk": 6281,
      "erated": 6282,
      "Ġsed": 6283,
      "Ġsalt": 6284,
      "Ġborn": 6285,
      "itably": 6286,
      "Ġfaith": 6287,
      "orse": 6288,
      "Ġmong": 6289,
      "arms": 6290,
      "Ġinclude": 6291,
      "Ġpigeons": 6292,
      "Ġdusk": 6293,
      "least": 6294,
      "Ġbell": 6295,
      "Ġbeheld": 6296,
      "stitution": 6297,
      "Ġeager": 6298,
      "ctly": 6299,
      "Ġrever": 6300,
      "idable": 6301,
      "aying": 6302,
      "rian": 6303,
      "Ġsus": 6304,
      "ĠBur": 6305,
      "ĠCH": 6306,
      "ĠCr": 6307,
      "ĠCru": 6308,
      "Ġrid": 6309,
      "ĠHudson": 6310,
      "Ġbutter": 6311,
      "iel": 6312,
      "ĠWorth": 6313,
      "ĠWilliam": 6314,
      "few": 6315,
      "umes": 6316,
      "ĠFred": 6317,
      "Ġensu": 6318,
      "Ġmankind": 6319,
      "Ġchurch": 6320,
      "Ġadjoining": 6321,
      "Ġtwice": 6322,
      "ovel": 6323,
      "cknow": 6324,
      "Ġforming": 6325,
      "ritor": 6326,
      "ĠJul": 6327,
      "cles": 6328,
      "away": 6329,
      "constru": 6330,
      "Ġspoken": 6331,
      "Ġreserves": 6332,
      "Ġsheep": 6333,
      "Ġregards": 6334,
      "Ġenth": 6335,
      "Ġentanglements": 6336,
      "withstanding": 6337,
      "Ġseriously": 6338,
      "Ġcoll": 6339,
      "Ġacting": 6340,
      "Ġmoon": 6341,
      "Ġsuccessfully": 6342,
      "overnor": 6343,
      "Ġrepair": 6344,
      "Ġorganisms": 6345,
      "Ġsimpl": 6346,
      "eneva": 6347,
      "apparent": 6348,
      "Ġfinished": 6349,
      "Ġforegoing": 6350,
      "Ġprovide": 6351,
      "Ġrailroads": 6352,
      "ooks": 6353,
      "days": 6354,
      "Ġcommunity": 6355,
      "Ġrespects": 6356,
      "Ġswim": 6357,
      "guard": 6358,
      "Ġpursue": 6359,
      "Ġbelonged": 6360,
      "Ġcolours": 6361,
      "Ġlearn": 6362,
      "ISS": 6363,
      "Ġutmost": 6364,
      "Ġtemperate": 6365,
      "Ġpreparing": 6366,
      "Ġthreatening": 6367,
      "Ġdeeply": 6368,
      "Ġbusy": 6369,
      "Ġdeclared": 6370,
      "ustrial": 6371,
      "officer": 6372,
      "Ġendeavoured": 6373,
      "Ġexecution": 6374,
      "Ġembryo": 6375,
      "Ġviolent": 6376,
      "movement": 6377,
      "ĠpalÃ¦": 6378,
      "ĠCharleston": 6379,
      "Ġescaped": 6380,
      "possibility": 6381,
      "Ġtransitional": 6382,
      "ĠOxford": 6383,
      "Ġtactics": 6384,
      "Ã¤rt": 6385,
      "Ã¤rtner": 6386,
      "-+--------": 6387,
      "250": 6388,
      "60": 6389,
      "April": 6390,
      "AIGN": 6391,
      "COL": 6392,
      "Em": 6393,
      "Of": 6394,
      "QU": 6395,
      "aited": 6396,
      "bus": 6397,
      "cause": 6398,
      "further": 6399,
      "host": 6400,
      "ii": 6401,
      "moll": 6402,
      "nies": 6403,
      "oot": 6404,
      "pol": 6405,
      "trenches": 6406,
      "Ġtun": 6407,
      "heres": 6408,
      "Ġacknow": 6409,
      "Ġwo": 6410,
      "Ġwise": 6411,
      "Ġspect": 6412,
      "eninsula": 6413,
      "Ġball": 6414,
      "Ġbreat": 6415,
      "Ġborder": 6416,
      "itimate": 6417,
      "Ġfil": 6418,
      "Ġcars": 6419,
      "Ġmal": 6420,
      "Ġmunition": 6421,
      "Ġpist": 6422,
      "Ġpull": 6423,
      "alton": 6424,
      "ros": 6425,
      "lets": 6426,
      "sters": 6427,
      "streng": 6428,
      "Ġeat": 6429,
      "enter": 6430,
      "utch": 6431,
      "ĠTer": 6432,
      "ĠTar": 6433,
      "ithia": 6434,
      "changed": 6435,
      "amb": 6436,
      "aint": 6437,
      "ĠSee": 6438,
      "Ġsections": 6439,
      "Ġsector": 6440,
      "ĠMost": 6441,
      "Ġrushed": 6442,
      "Ġrules": 6443,
      "Ġdecre": 6444,
      "Ġvo": 6445,
      "ivart": 6446,
      "osity": 6447,
      "ĠPacific": 6448,
      "Ġencour": 6449,
      "Ġabund": 6450,
      "Ġability": 6451,
      "often": 6452,
      "Ġpoison": 6453,
      "near": 6454,
      "Ġloc": 6455,
      "conne": 6456,
      "ĠGenerals": 6457,
      "Ġ1918": 6458,
      "ERS": 6459,
      "prise": 6460,
      "Ġframe": 6461,
      "Ġfrag": 6462,
      "ĠUpper": 6463,
      "ĠUzsok": 6464,
      "ĠArtic": 6465,
      "Ġtertiary": 6466,
      "Ġlasted": 6467,
      "Ġorganization": 6468,
      "Ġconstit": 6469,
      "parts": 6470,
      "Ġrestored": 6471,
      "Ġresulted": 6472,
      "arged": 6473,
      "remain": 6474,
      "Ġ60": 6475,
      "Ġcheer": 6476,
      "evident": 6477,
      "Ġconnection": 6478,
      "Ġauthorized": 6479,
      "Ġexamined": 6480,
      "Ġsystems": 6481,
      "Ġoriginally": 6482,
      "better": 6483,
      "Ġsenses": 6484,
      "Ġwatching": 6485,
      "Ġpreparation": 6486,
      "Ġduties": 6487,
      "Army": 6488,
      "domestic": 6489,
      "Ġcruel": 6490,
      "Ġhostilities": 6491,
      "surre": 6492,
      "instinct": 6493,
      "Ġtravel": 6494,
      "Ġdreams": 6495,
      "Ġenjoyed": 6496,
      "Ġfemales": 6497,
      "Ġdiagram": 6498,
      "purpose": 6499,
      "inois": 6500,
      "Ġmutual": 6501,
      "ĠGeorgie": 6502,
      "Ġultimately": 6503,
      "Ġsecurities": 6504,
      "favour": 6505,
      "Colonel": 6506,
      "Ġsympathy": 6507,
      "Ġpretty": 6508,
      "Ġdangerous": 6509,
      "AMPAIGN": 6510,
      "BURG": 6511,
      "orraine": 6512,
      "Ġanticip": 6513,
      "Ġenthusi": 6514,
      "75": 6515,
      "AIN": 6516,
      "ET": 6517,
      "IE": 6518,
      "IX": 6519,
      "OINT": 6520,
      "VII": 6521,
      "Where": 6522,
      "din": 6523,
      "either": 6524,
      "iating": 6525,
      "ridge": 6526,
      "said": 6527,
      "ta": 6528,
      "vations": 6529,
      "wide": 6530,
      "Ġtort": 6531,
      "Ġtalked": 6532,
      "including": 6533,
      "Ġwalls": 6534,
      "Ġbones": 6535,
      "itled": 6536,
      "ester": 6537,
      "armed": 6538,
      "Ġhive": 6539,
      "ington": 6540,
      "asm": 6541,
      "Ġdust": 6542,
      "Ġdash": 6543,
      "icul": 6544,
      "stri": 6545,
      "Ġlink": 6546,
      "ĠIm": 6547,
      "Ġgather": 6548,
      "Ġgrown": 6549,
      "uts": 6550,
      "uries": 6551,
      "ĠTw": 6552,
      "irmed": 6553,
      "Ġheat": 6554,
      "Ġhearing": 6555,
      "Ġstam": 6556,
      "Ġsearch": 6557,
      "Ġexpend": 6558,
      "Ġranges": 6559,
      "ĠHad": 6560,
      "usil": 6561,
      "too": 6562,
      "ĠRes": 6563,
      "Ġaltern": 6564,
      "ĠPittsburg": 6565,
      "ava": 6566,
      "asts": 6567,
      "dec": 6568,
      "bey": 6569,
      "Ġroll": 6570,
      "Ġjaws": 6571,
      "jec": 6572,
      "ĠVari": 6573,
      "Ġcontest": 6574,
      "Ġconsists": 6575,
      "iverse": 6576,
      "cession": 6577,
      "Ġinstant": 6578,
      "henando": 6579,
      "Ġgenerals": 6580,
      "Ġbelieving": 6581,
      "ĠArab": 6582,
      "ĠArmistice": 6583,
      "Ġassist": 6584,
      "Ġassign": 6585,
      "within": 6586,
      "tense": 6587,
      "Ġindicated": 6588,
      "amped": 6589,
      "Ġlands": 6590,
      "Ġempt": 6591,
      "Ġhundreds": 6592,
      "Ġeastward": 6593,
      "Ġoperate": 6594,
      "ointment": 6595,
      "Ġ50": 6596,
      "Ġthinking": 6597,
      "Ġsummit": 6598,
      "Ġdispers": 6599,
      "Ġdispatches": 6600,
      "azoo": 6601,
      "regard": 6602,
      "Ġlowest": 6603,
      "umstances": 6604,
      "Ġbombarded": 6605,
      "Ġlabour": 6606,
      "States": 6607,
      "Ġarguments": 6608,
      "Ġconducted": 6609,
      "Ġaccumulation": 6610,
      "following": 6611,
      "Ġsolid": 6612,
      "Ġunequ": 6613,
      "Ġobjection": 6614,
      "Ġconcentrated": 6615,
      "Ġobviously": 6616,
      "Ġerror": 6617,
      "Ġsubstantial": 6618,
      "ĠBotha": 6619,
      "practicable": 6620,
      "ĠlarvÃ¦": 6621,
      "ĠSchofield": 6622,
      "ĠDanville": 6623,
      "ĠGallipoli": 6624,
      "hibited": 6625,
      "sufficient": 6626,
      "Ġexercise": 6627,
      "Ġchoose": 6628,
      "ĠWorld": 6629,
      "OMMAND": 6630,
      "soldiers": 6631,
      "ĠRegiment": 6632,
      "true": 6633,
      "ĠEmpire": 6634,
      "Ġstigma": 6635,
      "niester": 6636,
      "henandoah": 6637,
      "70": 6638,
      "IAN": 6639,
      "March": 6640,
      "Major": 6641,
      "Oh": 6642,
      "Par": 6643,
      "TON": 6644,
      "city": 6645,
      "campaign": 6646,
      "finite": 6647,
      "hist": 6648,
      "ker": 6649,
      "mis": 6650,
      "sat": 6651,
      "sign": 6652,
      "town": 6653,
      "ws": 6654,
      "heme": 6655,
      "ref": 6656,
      "Ġspend": 6657,
      "Ġbond": 6658,
      "Ġburning": 6659,
      "Ġfro": 6660,
      "Ġcuckoo": 6661,
      "Ġhitherto": 6662,
      "asy": 6663,
      "enture": 6664,
      "Ġlot": 6665,
      "Ġloud": 6666,
      "oman": 6667,
      "ĠIll": 6668,
      "Ġhem": 6669,
      "illy": 6670,
      "amaug": 6671,
      "ĠSHER": 6672,
      "ĠShiloh": 6673,
      "acles": 6674,
      "ĠGÃ¤rtner": 6675,
      "ĠCouncil": 6676,
      "ĠMade": 6677,
      "ĠMont": 6678,
      "Ġrush": 6679,
      "oded": 6680,
      "aker": 6681,
      "ieving": 6682,
      "ĠFo": 6683,
      "ĠFar": 6684,
      "ĠFif": 6685,
      "ĠOw": 6686,
      "Ġplates": 6687,
      "agers": 6688,
      "Ġadj": 6689,
      "ovey": 6690,
      "Ġspecially": 6691,
      "Ġclay": 6692,
      "Ġdoll": 6693,
      "Ġformidable": 6694,
      "ĠJew": 6695,
      "Ġperformed": 6696,
      "Ġdisaster": 6697,
      "Ġrolling": 6698,
      "Ġtrace": 6699,
      "uda": 6700,
      "Ġremn": 6701,
      "ften": 6702,
      "Ġfool": 6703,
      "Ġflour": 6704,
      "Ġcompare": 6705,
      "issance": 6706,
      "prov": 6707,
      "Ġextensive": 6708,
      "Ġterrific": 6709,
      "phys": 6710,
      "Ġnorthwest": 6711,
      "ĠYazoo": 6712,
      "OND": 6713,
      "ounced": 6714,
      "Ġnortheast": 6715,
      "gram": 6716,
      "Ġconnex": 6717,
      "Ġaccompany": 6718,
      "supposed": 6719,
      "Ġdependent": 6720,
      "Ġbattalion": 6721,
      "Ġbattalions": 6722,
      "Ġguarded": 6723,
      "Ġawait": 6724,
      "Ġpractice": 6725,
      "Ġaccordingly": 6726,
      "differences": 6727,
      "Ġundoubtedly": 6728,
      "Ġexcited": 6729,
      "Ġannounce": 6730,
      "Ġnationals": 6731,
      "Ġunex": 6732,
      "considerable": 6733,
      "Ġintrodu": 6734,
      "umphreys": 6735,
      "question": 6736,
      "Ġvirtue": 6737,
      "Ġsecurity": 6738,
      "Ġbriefly": 6739,
      "Ġignorant": 6740,
      "Ġelectric": 6741,
      "Ġexclusively": 6742,
      "machine": 6743,
      "Ġcrustaceans": 6744,
      "ĠBattalion": 6745,
      "Confederate": 6746,
      "Ġadmiralty": 6747,
      "APTURE": 6748,
      "usiliers": 6749,
      "amauga": 6750,
      ");": 6751,
      "Bl": 6752,
      "Bel": 6753,
      "OC": 6754,
      "OUS": 6755,
      "Ro": 6756,
      "Smith": 6757,
      "aur": 6758,
      "cest": 6759,
      "fles": 6760,
      "iqu": 6761,
      "mem": 6762,
      "mont": 6763,
      "ny": 6764,
      "nat": 6765,
      "ooth": 6766,
      "tw": 6767,
      "tion": 6768,
      "table": 6769,
      "uate": 6770,
      "vill": 6771,
      "Ġtrench": 6772,
      "Ġaqu": 6773,
      "Ġaided": 6774,
      "inations": 6775,
      "Ġwishes": 6776,
      "onne": 6777,
      "atures": 6778,
      "Ġbill": 6779,
      "isen": 6780,
      "anx": 6781,
      "ancho": 6782,
      "Ġmould": 6783,
      "Ġmature": 6784,
      "Ġmules": 6785,
      "arse": 6786,
      "arles": 6787,
      "Ġhid": 6788,
      "Ġinch": 6789,
      "Ġinner": 6790,
      "Ġinsp": 6791,
      "ingly": 6792,
      "Ġpian": 6793,
      "Ġpushing": 6794,
      "asions": 6795,
      "ications": 6796,
      "Ġnarr": 6797,
      "ominy": 6798,
      "ĠII": 6799,
      "ĠIII": 6800,
      "Ġrecipro": 6801,
      "Ġrecommend": 6802,
      "utions": 6803,
      "child": 6804,
      "iling": 6805,
      "territory": 6806,
      "pelled": 6807,
      "river": 6808,
      "rieff": 6809,
      "across": 6810,
      "accompl": 6811,
      "Ġconcluded": 6812,
      "ĠCount": 6813,
      "Ġrough": 6814,
      "istent": 6815,
      "ferences": 6816,
      "asted": 6817,
      "ellect": 6818,
      "Ġaboard": 6819,
      "Ġmanaged": 6820,
      "ĠLup": 6821,
      "ĠLEE": 6822,
      "acted": 6823,
      "perhaps": 6824,
      "ĠNothing": 6825,
      "ĠEm": 6826,
      "arer": 6827,
      "pless": 6828,
      "reece": 6829,
      "bee": 6830,
      "beaut": 6831,
      "ĠJeff": 6832,
      "Ġperpet": 6833,
      "Ġdisapp": 6834,
      "awa": 6835,
      "cipl": 6836,
      "Ġprecip": 6837,
      "ension": 6838,
      "ensions": 6839,
      "exped": 6840,
      "Ġprim": 6841,
      "produced": 6842,
      "Ġlips": 6843,
      "ĠStr": 6844,
      "Ġslopes": 6845,
      "ocks": 6846,
      "ĠUp": 6847,
      "Ġassert": 6848,
      "Ġpassion": 6849,
      "Ġinternal": 6850,
      "Ġnaturalist": 6851,
      "Ġimports": 6852,
      "------": 6853,
      "Ġsecuring": 6854,
      "Ġnevertheless": 6855,
      "Ġemph": 6856,
      "Ġdefences": 6857,
      "mitrieff": 6858,
      "Ġorganism": 6859,
      "Ġtransmitted": 6860,
      "Ġmoral": 6861,
      "Ġturns": 6862,
      "arris": 6863,
      "Ġmonster": 6864,
      "Ġguards": 6865,
      "enny": 6866,
      "aused": 6867,
      "born": 6868,
      "Ġrequires": 6869,
      "Ġcurrent": 6870,
      "Ġmoments": 6871,
      "Ġgraduated": 6872,
      "ĠAnother": 6873,
      "Ġdomesticated": 6874,
      "Ġswift": 6875,
      "Ġassaults": 6876,
      "commander": 6877,
      "ĠCommanding": 6878,
      "itzers": 6879,
      "ĠBlair": 6880,
      "Ġguarding": 6881,
      "Ġbarri": 6882,
      "advanced": 6883,
      "Ġdrink": 6884,
      "Ġseverely": 6885,
      "Ġthickness": 6886,
      "oehm": 6887,
      "became": 6888,
      "crossed": 6889,
      "organic": 6890,
      "ĠHowever": 6891,
      "instance": 6892,
      "Ġspeedily": 6893,
      "according": 6894,
      "ELL": 6895,
      "rupted": 6896,
      "Hungary": 6897,
      "Ġhurried": 6898,
      "pursu": 6899,
      "Ġfairly": 6900,
      "Ġclouds": 6901,
      "possession": 6902,
      "Ġdetachment": 6903,
      "demona": 6904,
      "ĠHarbor": 6905,
      "Ġgallant": 6906,
      "Ġevacuated": 6907,
      "Ġvolunteers": 6908,
      "Ġtimber": 6909,
      "Ġravine": 6910,
      "asnysz": 6911,
      "Ġtemporary": 6912,
      "degree": 6913,
      "ĠAlpine": 6914,
      "ĠTexas": 6915,
      "Ermoll": 6916,
      "ĠMissionary": 6917,
      "Ġmunitions": 6918,
      "ancholy": 6919,
      "Ermolli": 6920,
      "\";": 6921,
      "EX": 6922,
      "Many": 6923,
      "North": 6924,
      "REN": 6925,
      "Vicksburg": 6926,
      "ajec": 6927,
      "bar": 6928,
      "best": 6929,
      "breed": 6930,
      "care": 6931,
      "crit": 6932,
      "ger": 6933,
      "girl": 6934,
      "iated": 6935,
      "low": 6936,
      "lod": 6937,
      "pus": 6938,
      "pie": 6939,
      "situ": 6940,
      "sboro": 6941,
      "ture": 6942,
      "Ġ0": 6943,
      "Ġtall": 6944,
      "Ġaut": 6945,
      "resem": 6946,
      "Ġwife": 6947,
      "Ġsav": 6948,
      "Ġsorrow": 6949,
      "Ġbow": 6950,
      "Ġbud": 6951,
      "Ġbold": 6952,
      "Ġfault": 6953,
      "Ġcou": 6954,
      "Ġmud": 6955,
      "Ġmock": 6956,
      "Ġmatch": 6957,
      "always": 6958,
      "Ġdaw": 6959,
      "Ġthy": 6960,
      "rolled": 6961,
      "lem": 6962,
      "stead": 6963,
      "entire": 6964,
      "Ġgame": 6965,
      "Ġgrew": 6966,
      "Ġgaz": 6967,
      "ĠTy": 6968,
      "Ġwaste": 6969,
      "Ġstay": 6970,
      "gel": 6971,
      "acious": 6972,
      "acco": 6973,
      "ĠBalk": 6974,
      "ĠGeneva": 6975,
      "Ġcontained": 6976,
      "ĠMivart": 6977,
      "Ġrage": 6978,
      "ode": 6979,
      "ĠWestern": 6980,
      "osc": 6981,
      "ansas": 6982,
      "Ġmanners": 6983,
      "forward": 6984,
      "ĠDo": 6985,
      "ĠDniester": 6986,
      "agement": 6987,
      "Ġroof": 6988,
      "uded": 6989,
      "Ġoverwhel": 6990,
      "Ġobstru": 6991,
      "exam": 6992,
      "ignity": 6993,
      "Ġconting": 6994,
      "ĠStaff": 6995,
      "ĠArchipelago": 6996,
      "Ġcolored": 6997,
      "ificant": 6998,
      "ĠChapter": 6999,
      "Ġendured": 7000,
      "means": 7001,
      "Ġcontinents": 7002,
      "Ġnorthward": 7003,
      "poch": 7004,
      "sonzo": 7005,
      "Ġorganized": 7006,
      "Ġconsiderably": 7007,
      "Ġmainly": 7008,
      "ashion": 7009,
      "Ġreasonable": 7010,
      "Ġmetam": 7011,
      "Ġparticulars": 7012,
      "retreat": 7013,
      "returned": 7014,
      "Ġannihil": 7015,
      "Ġsilver": 7016,
      "Ġtends": 7017,
      "Ġrespective": 7018,
      "Ġeighty": 7019,
      "Ġbombs": 7020,
      "Ġinsisted": 7021,
      "Ġdrawing": 7022,
      "Ġclaimed": 7023,
      "ĠMexicans": 7024,
      "Ġaffinity": 7025,
      "Ġhopeless": 7026,
      "Ġmusk": 7027,
      "Ġpractical": 7028,
      "Ġinflicted": 7029,
      "Ġsensation": 7030,
      "Ġescort": 7031,
      "Ġcalcul": 7032,
      "Ġcorrespondence": 7033,
      "Ġtreatment": 7034,
      "athem": 7035,
      "Ġcombined": 7036,
      "Ġpreceded": 7037,
      "Ġinjurious": 7038,
      "Ġfacing": 7039,
      "stein": 7040,
      "existing": 7041,
      "ĠTeutonic": 7042,
      "ĠFourth": 7043,
      "ĠAustralian": 7044,
      "ĠMonte": 7045,
      "original": 7046,
      "Ġmultitude": 7047,
      "Ġarticles": 7048,
      "Ġreproductive": 7049,
      "Ġassociated": 7050,
      "Ġimprovement": 7051,
      "Ġcompensation": 7052,
      "apelle": 7053,
      "Ġstrateg": 7054,
      "lexand": 7055,
      "Ġobscure": 7056,
      "ĠCarpathians": 7057,
      "Ġrevenge": 7058,
      "Ġcommerce": 7059,
      "ĠLupkow": 7060,
      "France": 7061,
      "IP": 7062,
      "Not": 7063,
      "bank": 7064,
      "divisions": 7065,
      "gard": 7066,
      "hind": 7067,
      "haus": 7068,
      "mus": 7069,
      "matter": 7070,
      "muda": 7071,
      "national": 7072,
      "pic": 7073,
      "rations": 7074,
      "rating": 7075,
      "sper": 7076,
      "sace": 7077,
      "wer": 7078,
      "inition": 7079,
      "Ġwalked": 7080,
      "erness": 7081,
      "once": 7082,
      "atus": 7083,
      "Ġburned": 7084,
      "Ġbrill": 7085,
      "edgw": 7086,
      "Ġfill": 7087,
      "isfact": 7088,
      "anqu": 7089,
      "orne": 7090,
      "Ġmood": 7091,
      "Ġhomologous": 7092,
      "Ġintense": 7093,
      "inging": 7094,
      "Ġpit": 7095,
      "alks": 7096,
      "icism": 7097,
      "Ġbeet": 7098,
      "Ġepoch": 7099,
      "entions": 7100,
      "Ġlapse": 7101,
      "cting": 7102,
      "sec": 7103,
      "ĠIr": 7104,
      "Ġgrief": 7105,
      "Ġgarden": 7106,
      "impossible": 7107,
      "ĠTre": 7108,
      "Ġascend": 7109,
      "Ġhes": 7110,
      "illeg": 7111,
      "riped": 7112,
      "Ġstyle": 7113,
      "ĠSy": 7114,
      "ĠSiles": 7115,
      "account": 7116,
      "ĠBukowina": 7117,
      "abama": 7118,
      "oret": 7119,
      "ĠCold": 7120,
      "ĠMed": 7121,
      "ĠMill": 7122,
      "istence": 7123,
      "ights": 7124,
      "ĠHumphreys": 7125,
      "apers": 7126,
      "apidan": 7127,
      "Ġpropose": 7128,
      "Ġshoe": 7129,
      "ousin": 7130,
      "ĠRev": 7131,
      "Ġknot": 7132,
      "ĠPOINT": 7133,
      "Ġchain": 7134,
      "ĠLX": 7135,
      "independ": 7136,
      "ĠEr": 7137,
      "ĠEach": 7138,
      "ĠDutch": 7139,
      "Ġcloth": 7140,
      "Ġunite": 7141,
      "Ġafraid": 7142,
      "Ġperfection": 7143,
      "Ġattributed": 7144,
      "Ġquadru": 7145,
      "Ġmostly": 7146,
      "Ġprison": 7147,
      "Ġprices": 7148,
      "Ġ(*": 7149,
      "coming": 7150,
      "bler": 7151,
      "endous": 7152,
      "Ġblown": 7153,
      "Ġgrass": 7154,
      "Ġgranted": 7155,
      "Ġsentiment": 7156,
      "bran": 7157,
      "afted": 7158,
      "Ġreading": 7159,
      "ĠAsia": 7160,
      "Ġreturning": 7161,
      "Ġarriving": 7162,
      "Ġgrounds": 7163,
      "ĠConstantinople": 7164,
      "fortune": 7165,
      "Ġcurrency": 7166,
      "coast": 7167,
      "Ġvictim": 7168,
      "Ġobserve": 7169,
      "ITION": 7170,
      "orna": 7171,
      "Ġelements": 7172,
      "Ġwindows": 7173,
      "ĠXL": 7174,
      "ĠXX": 7175,
      "ĠXXX": 7176,
      "greater": 7177,
      "Ġstrengthened": 7178,
      "does": 7179,
      "ĠIsland": 7180,
      "Ġcruisers": 7181,
      "Ġcircumstance": 7182,
      "Ġdeparture": 7183,
      "correspond": 7184,
      "Although": 7185,
      "inguished": 7186,
      "Ġquartermaster": 7187,
      "Ġdemands": 7188,
      "Ġlisten": 7189,
      "Ġinferior": 7190,
      "Ġnests": 7191,
      "Ġconsequences": 7192,
      "Ġhonor": 7193,
      "Ġharbor": 7194,
      "genera": 7195,
      "Ġsubstantially": 7196,
      "Ġexperiment": 7197,
      "difficulty": 7198,
      "Ġefficient": 7199,
      "broken": 7200,
      "Ġzone": 7201,
      "birds": 7202,
      "Ġdisturbed": 7203,
      "Ġfreedom": 7204,
      "ĠKrithia": 7205,
      "Ġunusual": 7206,
      "Ġbotan": 7207,
      "Ġadministration": 7208,
      "Ġflesh": 7209,
      "ĠMadeira": 7210,
      "Ġconnexion": 7211,
      "edgwick": 7212,
      "Having": 7213,
      "Lieutenant": 7214,
      "UM": 7215,
      "VIII": 7216,
      "Well": 7217,
      "bable": 7218,
      "bound": 7219,
      "counter": 7220,
      "dam": 7221,
      "eenth": 7222,
      "fast": 7223,
      "ique": 7224,
      "killed": 7225,
      "log": 7226,
      "oz": 7227,
      "ozo": 7228,
      "pop": 7229,
      "person": 7230,
      "rich": 7231,
      "tem": 7232,
      "trees": 7233,
      "wall": 7234,
      "Ġtiny": 7235,
      "inently": 7236,
      "Ġoil": 7237,
      "Ġwicked": 7238,
      "Ġsister": 7239,
      "enough": 7240,
      "enstein": 7241,
      "onents": 7242,
      "Ġfaun": 7243,
      "Ġfancy": 7244,
      "isite": 7245,
      "especially": 7246,
      "arant": 7247,
      "aros": 7248,
      "Ġhalt": 7249,
      "Ġholes": 7250,
      "Ġinit": 7251,
      "Ġinform": 7252,
      "Ġpenc": 7253,
      "Ġdare": 7254,
      "leans": 7255,
      "Ġbee": 7256,
      "llo": 7257,
      "stration": 7258,
      "Ġears": 7259,
      "Ġlaughter": 7260,
      "imm": 7261,
      "ĠTenth": 7262,
      "owder": 7263,
      "iddle": 7264,
      "ayer": 7265,
      "rie": 7266,
      "etween": 7267,
      "ĠSprings": 7268,
      "ĠBas": 7269,
      "ĠBav": 7270,
      "ĠBesides": 7271,
      "ĠGar": 7272,
      "ĠGib": 7273,
      "Ġexert": 7274,
      "Ġcontaining": 7275,
      "ĠCass": 7276,
      "Ġvital": 7277,
      "apters": 7278,
      "Ġproject": 7279,
      "Ġprogram": 7280,
      "mann": 7281,
      "Ġshop": 7282,
      "Ġshots": 7283,
      "Ġsocial": 7284,
      "ĠWhe": 7285,
      "ĠRapidan": 7286,
      "ĠFer": 7287,
      "Ġalike": 7288,
      "oster": 7289,
      "Ġleather": 7290,
      "igration": 7291,
      "Ġplains": 7292,
      "agged": 7293,
      "ĠGermanic": 7294,
      "arest": 7295,
      "Ġworse": 7296,
      "ĠDu": 7297,
      "Ġagency": 7298,
      "Ġagreement": 7299,
      "ĠJose": 7300,
      "Ġpermit": 7301,
      "Ġquit": 7302,
      "Ġresumed": 7303,
      "resses": 7304,
      "ressive": 7305,
      "Ġstranger": 7306,
      "Ġcountenance": 7307,
      "Ġ300": 7308,
      "ĠArchduke": 7309,
      "oyd": 7310,
      "Ġindustrial": 7311,
      "Ġmode": 7312,
      "Ġvalid": 7313,
      "Ġrecovered": 7314,
      "Ġdeliver": 7315,
      "Ġmonarch": 7316,
      "Ġadding": 7317,
      "ORT": 7318,
      "Ġequip": 7319,
      "prepar": 7320,
      "Ġruin": 7321,
      "Ġsym": 7322,
      "Ġparas": 7323,
      "Ġleaders": 7324,
      "Ġcheap": 7325,
      "Ġwriters": 7326,
      "Ġreality": 7327,
      "ĠCorpus": 7328,
      "Ġlaying": 7329,
      "Ġhypot": 7330,
      "Ġimpression": 7331,
      "Ġpromise": 7332,
      "clusions": 7333,
      "Ġexamine": 7334,
      "Ġinstrument": 7335,
      "Ġcircle": 7336,
      "Ġadmirable": 7337,
      "conomic": 7338,
      "Ġsignal": 7339,
      "Ġeconomy": 7340,
      "ssilov": 7341,
      "Ġapplication": 7342,
      "Ġmurderer": 7343,
      "ĠPrzasnysz": 7344,
      "direction": 7345,
      "Ġmistake": 7346,
      "ustomed": 7347,
      "points": 7348,
      "Ġchecked": 7349,
      "Ġfossils": 7350,
      "ĠSwitzerland": 7351,
      "Ġcounterattacks": 7352,
      "Ġdiversified": 7353,
      "Ġdistinguish": 7354,
      "particular": 7355,
      "Ġblew": 7356,
      "Ġbeaten": 7357,
      "Ġseventy": 7358,
      "ĠEdward": 7359,
      "Ġcontemplated": 7360,
      "Ġfundamental": 7361,
      "America": 7362,
      "Ġinevitably": 7363,
      "ĠTrans": 7364,
      "ĠAssociated": 7365,
      "engeance": 7366,
      "Ġnegotiations": 7367,
      "Ġhospital": 7368,
      "Ġdisease": 7369,
      "Ġindustry": 7370,
      "ĠIllinois": 7371,
      "ĠOwen": 7372,
      "Burnside": 7373,
      "Every": 7374,
      "Government": 7375,
      "Hancock": 7376,
      "New": 7377,
      "Such": 7378,
      "Up": 7379,
      "aft": 7380,
      "creat": 7381,
      "di": 7382,
      "dro": 7383,
      "grow": 7384,
      "junction": 7385,
      "oons": 7386,
      "ocr": 7387,
      "pat": 7388,
      "power": 7389,
      "peds": 7390,
      "rush": 7391,
      "since": 7392,
      "tau": 7393,
      "went": 7394,
      "western": 7395,
      "Ġtit": 7396,
      "Ġapt": 7397,
      "Ġsink": 7398,
      "issu": 7399,
      "Ġcrest": 7400,
      "Ġming": 7401,
      "Ġmir": 7402,
      "Ġmaxim": 7403,
      "Ġpack": 7404,
      "Ġpale": 7405,
      "Ġdance": 7406,
      "Ġduration": 7407,
      "rose": 7408,
      "leep": 7409,
      "Ġninet": 7410,
      "aders": 7411,
      "start": 7412,
      "ente": 7413,
      "Ġlif": 7414,
      "ceiving": 7415,
      "seen": 7416,
      "ldon": 7417,
      "Ġwel": 7418,
      "Ġwet": 7419,
      "Ġwear": 7420,
      "anded": 7421,
      "ilk": 7422,
      "amber": 7423,
      "aines": 7424,
      "reditary": 7425,
      "above": 7426,
      "ĠGood": 7427,
      "ulse": 7428,
      "Ġconceived": 7429,
      "estim": 7430,
      "Ġrum": 7431,
      "opter": 7432,
      "using": 7433,
      "Ġshops": 7434,
      "unk": 7435,
      "ĠWAR": 7436,
      "Ġwhenever": 7437,
      "ĠFord": 7438,
      "ĠFarm": 7439,
      "ĠFusiliers": 7440,
      "Ġkings": 7441,
      "elson": 7442,
      "Ġcommiss": 7443,
      "Ġadequ": 7444,
      "Ġfever": 7445,
      "Ġfeared": 7446,
      "Ġours": 7447,
      "plan": 7448,
      "sels": 7449,
      "next": 7450,
      "Ġclauses": 7451,
      "Ġunlike": 7452,
      "Ġunhapp": 7453,
      "ĠThree": 7454,
      "myself": 7455,
      "ailway": 7456,
      "keep": 7457,
      "keley": 7458,
      "Ġprefer": 7459,
      "concent": 7460,
      "Ġovercome": 7461,
      "Ġspaces": 7462,
      "Ġamid": 7463,
      "Ġdeserted": 7464,
      "Ġflood": 7465,
      "overning": 7466,
      "Ġconsisting": 7467,
      "Ġcorn": 7468,
      "Ġslave": 7469,
      "Ġentitled": 7470,
      "Ġapplies": 7471,
      "Ġpreserve": 7472,
      "Ġeverywhere": 7473,
      "Ġsmoke": 7474,
      "Ġsmooth": 7475,
      "Ġcolony": 7476,
      "ĠKant": 7477,
      "ĠChurch": 7478,
      "Ġgrave": 7479,
      "Ġpassengers": 7480,
      "Ġtermin": 7481,
      "Ġinterven": 7482,
      "ĠWeldon": 7483,
      "Ġnewsp": 7484,
      "Ġmoder": 7485,
      "Ġstrugg": 7486,
      "Ġreadiness": 7487,
      "Ġkindness": 7488,
      "itually": 7489,
      "arrange": 7490,
      "Ġexceptions": 7491,
      "Ġsetting": 7492,
      "Ġrested": 7493,
      "Ġindefinite": 7494,
      "Ġinvari": 7495,
      "marck": 7496,
      "Ġacquire": 7497,
      "Ġglory": 7498,
      "prev": 7499,
      "Ġearliest": 7500,
      "remained": 7501,
      "ARY": 7502,
      "Ġsubjects": 7503,
      "intermediate": 7504,
      "ahominy": 7505,
      "anean": 7506,
      "Ġpayments": 7507,
      "Ġdemoral": 7508,
      "variations": 7509,
      "ĠIndians": 7510,
      "Ġdrop": 7511,
      "Ġirregular": 7512,
      "subject": 7513,
      "Ġsteamship": 7514,
      "Ġrepresentatives": 7515,
      "Ġcease": 7516,
      "Ġdeadly": 7517,
      "Britain": 7518,
      "ĠProf": 7519,
      "Ġfurnish": 7520,
      "Ġstatements": 7521,
      "ĠBois": 7522,
      "vanoff": 7523,
      "Ġmurder": 7524,
      "ukla": 7525,
      "Ġdefinitely": 7526,
      "Ġsquad": 7527,
      "Ġbattleships": 7528,
      "destruction": 7529,
      "Ġkingdom": 7530,
      "modification": 7531,
      "ĠAfrican": 7532,
      "Ġgaining": 7533,
      "Ġcompetent": 7534,
      "Ġvigorous": 7535,
      "ĠSwed": 7536,
      "ĠBrigadier": 7537,
      "Ġcommencement": 7538,
      "Ġanxiety": 7539,
      "Ġpictures": 7540,
      "ĠColumbia": 7541,
      "Ġquietly": 7542,
      "Ġmortal": 7543,
      "Ġlogic": 7544,
      "ĠChristi": 7545,
      "Ġprofession": 7546,
      "burgh": 7547,
      "Ġidentical": 7548,
      "Ġcolonies": 7549,
      "Ġinnocent": 7550,
      "Ġinfinitely": 7551,
      "Ġaggreg": 7552,
      "acquainted": 7553,
      "PART": 7554,
      "Ġfingers": 7555,
      "ĠSerbia": 7556,
      "Ġbegins": 7557,
      "Ġgigantic": 7558,
      "ritorial": 7559,
      "QUAR": 7560,
      "Ġacknowled": 7561,
      "Ġvoices": 7562,
      "esterday": 7563,
      "Ġdollars": 7564,
      "Ġpiano": 7565,
      "ĠJefferson": 7566,
      "expedition": 7567,
      "!âĢĿ": 7568,
      "'ll": 7569,
      "90": 7570,
      "Can": 7571,
      "EW": 7572,
      "Ex": 7573,
      "Fort": 7574,
      "Hence": 7575,
      "Le": 7576,
      "Sh": 7577,
      "War": 7578,
      "Washington": 7579,
      "bon": 7580,
      "ca": 7581,
      "cence": 7582,
      "cott": 7583,
      "effort": 7584,
      "filled": 7585,
      "ibr": 7586,
      "mater": 7587,
      "rid": 7588,
      "range": 7589,
      "tri": 7590,
      "turn": 7591,
      "uber": 7592,
      "vict": 7593,
      "win": 7594,
      "wond": 7595,
      "wind": 7596,
      "wounded": 7597,
      "yx": 7598,
      "Ġtired": 7599,
      "heavy": 7600,
      "inety": 7601,
      "Ġov": 7602,
      "Ġwin": 7603,
      "Ġwalking": 7604,
      "ato": 7605,
      "Ġbat": 7606,
      "Ġfer": 7607,
      "isters": 7608,
      "Ġcash": 7609,
      "Ġcrown": 7610,
      "Ġcreek": 7611,
      "organs": 7612,
      "Ġham": 7613,
      "Ġinduced": 7614,
      "ingen": 7615,
      "Ġpatter": 7616,
      "Ġpages": 7617,
      "Ġpigeon": 7618,
      "asc": 7619,
      "Ġdu": 7620,
      "Ġdashed": 7621,
      "Ġdinner": 7622,
      "Ġlame": 7623,
      "ĠIsonzo": 7624,
      "url": 7625,
      "Ġforgot": 7626,
      "ida": 7627,
      "idents": 7628,
      "threat": 7629,
      "ching": 7630,
      "pered": 7631,
      "Ġstick": 7632,
      "ĠSpottsylvania": 7633,
      "Ġsupre": 7634,
      "acon": 7635,
      "ĠGord": 7636,
      "ulp": 7637,
      "ĠMen": 7638,
      "ĠMan": 7639,
      "Ġrisk": 7640,
      "ĠHard": 7641,
      "ĠHundred": 7642,
      "quid": 7643,
      "quite": 7644,
      "aks": 7645,
      "Ġpropositions": 7646,
      "oused": 7647,
      "ĠWild": 7648,
      "Ġaltered": 7649,
      "Ġenvelop": 7650,
      "ĠLand": 7651,
      "achment": 7652,
      "ĠEN": 7653,
      "Ġfears": 7654,
      "plies": 7655,
      "ĠDmitrieff": 7656,
      "Ġclause": 7657,
      "Ġuniverse": 7658,
      "begin": 7659,
      "ciate": 7660,
      "ciously": 7661,
      "conven": 7662,
      "conside": 7663,
      "expected": 7664,
      "Ġhowitzers": 7665,
      "Ġconsent": 7666,
      "comb": 7667,
      "Ġslavery": 7668,
      "henom": 7669,
      "Ġbless": 7670,
      "ĠCharles": 7671,
      "crete": 7672,
      "Ġworkers": 7673,
      "Ġnaturalised": 7674,
      "Ġindire": 7675,
      "Ġscenes": 7676,
      "Ġartific": 7677,
      "Ġproducing": 7678,
      "ONT": 7679,
      "Ġconfess": 7680,
      "Ġreceipt": 7681,
      "Ġdoubted": 7682,
      "arrass": 7683,
      "Ġ400": 7684,
      "Ġaddressed": 7685,
      "Ġattempting": 7686,
      "ĠAlps": 7687,
      "Ġsingular": 7688,
      "Ġteams": 7689,
      "Ġglac": 7690,
      "special": 7691,
      "prep": 7692,
      "apsed": 7693,
      "Ġelabor": 7694,
      "ĠBey": 7695,
      "Ġfamous": 7696,
      "return": 7697,
      "ĠSociety": 7698,
      "Ġreflection": 7699,
      "Ġstrip": 7700,
      "Ġsilent": 7701,
      "ĠMcC": 7702,
      "Ġvictories": 7703,
      "Ġimpass": 7704,
      "regiment": 7705,
      "Ġobservations": 7706,
      "understand": 7707,
      "board": 7708,
      "Ġinstructed": 7709,
      "Ġcausing": 7710,
      "commanding": 7711,
      "Ġutter": 7712,
      "Ġsurprising": 7713,
      "Ġexpectations": 7714,
      "Ġpicket": 7715,
      "ĠCanal": 7716,
      "Ġtells": 7717,
      "necessarily": 7718,
      "Ġburied": 7719,
      "Ġcontrad": 7720,
      "Ġheaven": 7721,
      "Ġworthy": 7722,
      "Ġmethods": 7723,
      "Ġdefended": 7724,
      "Ġdefenders": 7725,
      "Ġcosts": 7726,
      "steam": 7727,
      "Ġfalsehood": 7728,
      "ropical": 7729,
      "Ġapproaching": 7730,
      "Turks": 7731,
      "Ġforests": 7732,
      "ĠNeuve": 7733,
      "Ġencounter": 7734,
      "cipient": 7735,
      "Ġultimate": 7736,
      "Ġfloated": 7737,
      "ĠAmong": 7738,
      "Ġdiminished": 7739,
      "Ġresponsible": 7740,
      "Ġsubstance": 7741,
      "Ġdivine": 7742,
      "ĠHungary": 7743,
      "England": 7744,
      "ĠAccordingly": 7745,
      "Ġcloser": 7746,
      "Ġpontoon": 7747,
      "Ġexplosion": 7748,
      "Ġunfortunate": 7749,
      "ĠRumania": 7750,
      "ĠARMY": 7751,
      "Ġtheatre": 7752,
      "Ġaudience": 7753,
      "Ġstamens": 7754,
      "considered": 7755,
      "'d": 7756,
      ".âĢĻ": 7757,
      "BR": 7758,
      "CAPTURE": 7759,
      "EAD": 7760,
      "February": 7761,
      "GR": 7762,
      "Is": 7763,
      "Just": 7764,
      "Nor": 7765,
      "OH": 7766,
      "PL": 7767,
      "PER": 7768,
      "Richmond": 7769,
      "boy": 7770,
      "bene": 7771,
      "brian": 7772,
      "find": 7773,
      "gar": 7774,
      "iatic": 7775,
      "ko": 7776,
      "kansas": 7777,
      "lings": 7778,
      "maph": 7779,
      "military": 7780,
      "nance": 7781,
      "oided": 7782,
      "pally": 7783,
      "pits": 7784,
      "paper": 7785,
      "rant": 7786,
      "sal": 7787,
      "Ã¶": 7788,
      "Ġtent": 7789,
      "Ġtempt": 7790,
      "Ġtables": 7791,
      "herent": 7792,
      "Ġactions": 7793,
      "era": 7794,
      "erved": 7795,
      "Ġsangu": 7796,
      "Ġbars": 7797,
      "Ġborne": 7798,
      "Ġfix": 7799,
      "Ġcart": 7800,
      "Ġcig": 7801,
      "anwhile": 7802,
      "oration": 7803,
      "Ġmasters": 7804,
      "ara": 7805,
      "Ġincapable": 7806,
      "Ġdared": 7807,
      "Ġdried": 7808,
      "Ġdata": 7809,
      "lend": 7810,
      "leave": 7811,
      "Ġnom": 7812,
      "stud": 7813,
      "Ġlof": 7814,
      "Ġlaun": 7815,
      "ctar": 7816,
      "Ġreference": 7817,
      "utation": 7818,
      "ĠTrent": 7819,
      "ĠTsing": 7820,
      "Ġstone": 7821,
      "Ġstories": 7822,
      "etty": 7823,
      "Ġorch": 7824,
      "ĠSpan": 7825,
      "Ġseat": 7826,
      "acher": 7827,
      "ĠBarr": 7828,
      "ĠBATTLE": 7829,
      "ĠGre": 7830,
      "ĠGreece": 7831,
      "ulating": 7832,
      "ĠCad": 7833,
      "ĠCaucas": 7834,
      "ĠMOVEMENT": 7835,
      "Ġyesterday": 7836,
      "allowed": 7837,
      "ĠRou": 7838,
      "ĠFurther": 7839,
      "Ġchannel": 7840,
      "ĠLittle": 7841,
      "ĠLIN": 7842,
      "ĠNature": 7843,
      "ĠEight": 7844,
      "depend": 7845,
      "oking": 7846,
      "portions": 7847,
      "Ġpartially": 7848,
      "Ġwhence": 7849,
      "Ġagony": 7850,
      "began": 7851,
      "beyond": 7852,
      "Ġdisposition": 7853,
      "Ġundergone": 7854,
      "sup": 7855,
      "Ġprejud": 7856,
      "Ġrival": 7857,
      "Ġfold": 7858,
      "Ġpride": 7859,
      "progen": 7860,
      "Ġconsumed": 7861,
      "Ġinstantly": 7862,
      "iala": 7863,
      "Ġslope": 7864,
      "Ġappar": 7865,
      "Ġnumbered": 7866,
      "Ġmilk": 7867,
      "Ġcolonel": 7868,
      "Ġblo": 7869,
      "ĠChapelle": 7870,
      "Ġends": 7871,
      "Ġinterval": 7872,
      "Ġappeal": 7873,
      "Ġscheme": 7874,
      "pendic": 7875,
      "ĠTherefore": 7876,
      "gged": 7877,
      "âĢĿ,": 7878,
      "Ġdefined": 7879,
      "ĠĠĠĠĠĠĠĠĠĠĠĠĠĠĠĠĠĠĠĠ": 7880,
      "Ġbreast": 7881,
      "apped": 7882,
      "apping": 7883,
      "Ġfinds": 7884,
      "Ġguide": 7885,
      "Ġoccupying": 7886,
      "ublin": 7887,
      "cript": 7888,
      "ĠAlsace": 7889,
      "ATE": 7890,
      "Ġglass": 7891,
      "belief": 7892,
      "Ġhoriz": 7893,
      "Ġrealized": 7894,
      "Ġstriped": 7895,
      "Ġapproved": 7896,
      "Ġsoutheast": 7897,
      "ĠAny": 7898,
      "Ġabsent": 7899,
      "struggle": 7900,
      "Ġexamination": 7901,
      "Ġexamples": 7902,
      "Ġdescribe": 7903,
      "Ġaccounted": 7904,
      "ITH": 7905,
      "countries": 7906,
      "Ġcreatures": 7907,
      "LEC": 7908,
      "Ġphysi": 7909,
      "Ġsucceeding": 7910,
      "sterhaus": 7911,
      "numbers": 7912,
      "aggage": 7913,
      "Ġunderstanding": 7914,
      "cientific": 7915,
      "Ġprofound": 7916,
      "Ġprofitable": 7917,
      "arrows": 7918,
      "Ġtypes": 7919,
      "Ġdepth": 7920,
      "Allies": 7921,
      "justice": 7922,
      "Ġsurely": 7923,
      "Ġdeny": 7924,
      "Ġsquare": 7925,
      "modified": 7926,
      "Ġsolely": 7927,
      "ispens": 7928,
      "Ġinterview": 7929,
      "ĠBermuda": 7930,
      "Ġconcentration": 7931,
      "Ġapprehend": 7932,
      "Ġpurely": 7933,
      "Ġdesignated": 7934,
      "Ġsources": 7935,
      "ĠKingdom": 7936,
      "Ġproblems": 7937,
      "ĠArtillery": 7938,
      "Ġmelancholy": 7939,
      "Ġdistinguished": 7940,
      "avern": 7941,
      "Ġefficiency": 7942,
      "Ġdeposits": 7943,
      "Ġangle": 7944,
      "Ġblockade": 7945,
      "Ġproducts": 7946,
      "Ġexterminated": 7947,
      "fifth": 7948,
      "Ġdisplayed": 7949,
      "Ġmissing": 7950,
      "Ġpenetrated": 7951,
      "kesville": 7952,
      "Ġcultivated": 7953,
      "Ġfertilised": 7954,
      "destroyed": 7955,
      "circumstances": 7956,
      "northern": 7957,
      "ĠDunajec": 7958,
      "Ġodd": 7959,
      "Ġmanifest": 7960,
      "emnity": 7961,
      "Ġembraced": 7962,
      "Austro": 7963,
      "namely": 7964,
      "Ġexceedingly": 7965,
      "Ġshadow": 7966,
      "auregard": 7967,
      "Ġbutterf": 7968,
      "apparently": 7969,
      "Emden": 7970,
      "surrender": 7971,
      "dinand": 7972,
      "Ġannouncement": 7973,
      "ripedes": 7974,
      "ĠSilesia": 7975,
      "ĠJoseph": 7976,
      "QUARTERS": 7977,
      "urlbut": 7978,
      "maphrod": 7979,
      ",[": 7980,
      "35": 7981,
      "Brig": 7982,
      "Car": 7983,
      "South": 7984,
      "bbed": 7985,
      "bury": 7986,
      "ees": 7987,
      "eyes": 7988,
      "full": 7989,
      "kins": 7990,
      "march": 7991,
      "moving": 7992,
      "norm": 7993,
      "sus": 7994,
      "uit": 7995,
      "Ġtur": 7996,
      "inher": 7997,
      "infl": 7998,
      "insects": 7999,
      "rely": 8000,
      "Ġwis": 8001,
      "Ġwants": 8002,
      "Ġwaves": 8003,
      "Ġsen": 8004,
      "nders": 8005,
      "edge": 8006,
      "iteness": 8007,
      "Ġceded": 8008,
      "Ġmaster": 8009,
      "Ġinn": 8010,
      "Ġpou": 8011,
      "Ġpier": 8012,
      "Ġpoured": 8013,
      "rook": 8014,
      "Ġnet": 8015,
      "Ġger": 8016,
      "otal": 8017,
      "Ġaside": 8018,
      "ilosop": 8019,
      "Ġstars": 8020,
      "Ġstiff": 8021,
      "iferous": 8022,
      "ĠSen": 8023,
      "ĠSant": 8024,
      "ĠSide": 8025,
      "ĠSeveral": 8026,
      "ĠBir": 8027,
      "eman": 8028,
      "ĠGreek": 8029,
      "ulous": 8030,
      "ĠCal": 8031,
      "ĠCAMPAIGN": 8032,
      "ĠMor": 8033,
      "olk": 8034,
      "olle": 8035,
      "Ġdevil": 8036,
      "Ġvac": 8037,
      "ĠHol": 8038,
      "ĠHovey": 8039,
      "Ġshare": 8040,
      "Ġneeds": 8041,
      "ĠWal": 8042,
      "alling": 8043,
      "ĠRay": 8044,
      "Ġmyster": 8045,
      "Ġalter": 8046,
      "ĠPE": 8047,
      "ĠPad": 8048,
      "Ġenclosed": 8049,
      "else": 8050,
      "eless": 8051,
      "ĠOften": 8052,
      "Ġchoice": 8053,
      "agos": 8054,
      "resist": 8055,
      "ptiles": 8056,
      "ĠNations": 8057,
      "ĠEastern": 8058,
      "Ġnoise": 8059,
      "arians": 8060,
      "arew": 8061,
      "ĠDorn": 8062,
      "berg": 8063,
      "Ġunnecessary": 8064,
      "Ġunsuccessful": 8065,
      "clam": 8066,
      "Ġdiscipl": 8067,
      "Ġundertaking": 8068,
      "Ġloves": 8069,
      "suc": 8070,
      "Ġ200": 8071,
      "Ġtranqu": 8072,
      "consequently": 8073,
      "ĠHead": 8074,
      "Ġspont": 8075,
      "Ġsplend": 8076,
      "ĠVa": 8077,
      "ignation": 8078,
      "Ġpron": 8079,
      "Ġsheet": 8080,
      "others": 8081,
      "Ġcorrelated": 8082,
      "Ġasserted": 8083,
      "Ġcollection": 8084,
      "Ġinterpre": 8085,
      "Ġinternational": 8086,
      "philosop": 8087,
      "Ġcool": 8088,
      "Ġcoco": 8089,
      "ĠYour": 8090,
      "Ġcalls": 8091,
      "ĠĠĠĠĠĠĠĠĠĠĠĠĠĠĠĠĠĠĠĠĠ": 8092,
      "Thomas": 8093,
      "afie": 8094,
      "Ġstronger": 8095,
      "appre": 8096,
      "Ġdiscour": 8097,
      "Ġguarant": 8098,
      "Ġnormal": 8099,
      "Ġfury": 8100,
      "Ġputting": 8101,
      "ĠAlabama": 8102,
      "Ġdetached": 8103,
      "belong": 8104,
      "ĠConference": 8105,
      "Ġappearing": 8106,
      "Ġslightest": 8107,
      "Ġcharacteristic": 8108,
      "Ġdecide": 8109,
      "Ġrealize": 8110,
      "Ġamounted": 8111,
      "ĠAnnex": 8112,
      "Ġpromised": 8113,
      "appears": 8114,
      "variation": 8115,
      "ĠOrleans": 8116,
      "welling": 8117,
      "Ġpleased": 8118,
      "Ġdepended": 8119,
      "armies": 8120,
      "Ġimprobable": 8121,
      "ĠBluff": 8122,
      "Ġsimilarity": 8123,
      "Ġincludes": 8124,
      "Ġtriumph": 8125,
      "Ġlearning": 8126,
      "IST": 8127,
      "Ġsigns": 8128,
      "Ġhistor": 8129,
      "alogical": 8130,
      "Ġprepare": 8131,
      "ployed": 8132,
      "Ġfearful": 8133,
      "Ġdeclined": 8134,
      "Ġmotor": 8135,
      "Ġimagine": 8136,
      "Ġdemanded": 8137,
      "Ġexecute": 8138,
      "ACK": 8139,
      "Ġsailors": 8140,
      "directed": 8141,
      "ĠLouisiana": 8142,
      "isphere": 8143,
      "ĠFourteen": 8144,
      "Ġhastily": 8145,
      "transport": 8146,
      "Ġfatig": 8147,
      "Ġessentially": 8148,
      "Soon": 8149,
      "Ġexperiments": 8150,
      "Ġfirmly": 8151,
      "increase": 8152,
      "ĠCambrian": 8153,
      "Ġmanufacture": 8154,
      "Ġresponsibility": 8155,
      "rapnel": 8156,
      "Ġdemonstr": 8157,
      "McClernand": 8158,
      "Ġliberty": 8159,
      "Ġfierce": 8160,
      "ĠLyell": 8161,
      "Ã¼ller": 8162,
      "Ġfortunate": 8163,
      "ĠBrussilov": 8164,
      "experience": 8165,
      "instructions": 8166,
      "ĠRhine": 8167,
      "Ġbellige": 8168,
      "favourable": 8169,
      "Ġenthusiasm": 8170,
      "Ġreciprocal": 8171,
      "Ġbrilliant": 8172,
      "ĠCassio": 8173,
      "ĠFerdinand": 8174,
      "Ġinvariably": 8175,
      "ispensable": 8176,
      "24": 8177,
      "28": 8178,
      "AY": 8179,
      "CITY": 8180,
      "EF": 8181,
      "Early": 8182,
      "HOM": 8183,
      "Natural": 8184,
      "Reparation": 8185,
      "Summ": 8186,
      "Tri": 8187,
      "UC": 8188,
      "covered": 8189,
      "civil": 8190,
      "dr": 8191,
      "distance": 8192,
      "fold": 8193,
      "gn": 8194,
      "lit": 8195,
      "lest": 8196,
      "mouth": 8197,
      "master": 8198,
      "sight": 8199,
      "Ġi": 8200,
      "Ġrom": 8201,
      "Ġilleg": 8202,
      "Ġtip": 8203,
      "Ġtext": 8204,
      "Ġtaught": 8205,
      "Ġobey": 8206,
      "Ġwore": 8207,
      "eropl": 8208,
      "enet": 8209,
      "Ġbiv": 8210,
      "Ġcamps": 8211,
      "Ġcousin": 8212,
      "anci": 8213,
      "Ġmol": 8214,
      "around": 8215,
      "Ġhate": 8216,
      "Ġhanging": 8217,
      "Ġhole": 8218,
      "Ġnut": 8219,
      "Ġninety": 8220,
      "Ġeld": 8221,
      "Ġla": 8222,
      "Ġlakes": 8223,
      "oment": 8224,
      "section": 8225,
      "Ġrev": 8226,
      "Ġgar": 8227,
      "Ġgro": 8228,
      "otes": 8229,
      "ĠTri": 8230,
      "ĠTown": 8231,
      "Ġwhist": 8232,
      "andolle": 8233,
      "terior": 8234,
      "riv": 8235,
      "among": 8236,
      "Ġancest": 8237,
      "ĠSix": 8238,
      "ĠSatur": 8239,
      "ĠShenandoah": 8240,
      "ĠBattle": 8241,
      "ĠBattery": 8242,
      "ĠBoehm": 8243,
      "emic": 8244,
      "illow": 8245,
      "ĠGovernor": 8246,
      "Ġconject": 8247,
      "Ġconform": 8248,
      "ntente": 8249,
      "ĠMer": 8250,
      "Ġram": 8251,
      "Ġdeemed": 8252,
      "Ġvoy": 8253,
      "ods": 8254,
      "oped": 8255,
      "Ġshorter": 8256,
      "ĠWin": 8257,
      "Ġmeal": 8258,
      "ĠRun": 8259,
      "ĠFive": 8260,
      "ĠPers": 8261,
      "ĠPart": 8262,
      "outs": 8263,
      "Ġabhor": 8264,
      "ĠOR": 8265,
      "ĠOver": 8266,
      "ĠLille": 8267,
      "ĠNarrows": 8268,
      "Ġnobody": 8269,
      "Ġspecim": 8270,
      "ĠDukla": 8271,
      "Ġcliffs": 8272,
      "Ġdoors": 8273,
      "Ġperil": 8274,
      "Ġlocom": 8275,
      "aufort": 8276,
      "Ġspare": 8277,
      "Ġbeloved": 8278,
      "izes": 8279,
      "Ġ1921": 8280,
      "whom": 8281,
      "white": 8282,
      "Ġsubmer": 8283,
      "Ġshoulder": 8284,
      "Ġligh": 8285,
      "Ġconscious": 8286,
      "epublic": 8287,
      "comfort": 8288,
      "Ġregret": 8289,
      "Ġpeop": 8290,
      "Ġsmile": 8291,
      "Ġcolle": 8292,
      "Ġterror": 8293,
      "atha": 8294,
      "Ġmodify": 8295,
      "Ġsouthwest": 8296,
      "Ġdefinition": 8297,
      "affe": 8298,
      "Ġsteep": 8299,
      "Ġcourt": 8300,
      "Ġdeliber": 8301,
      "ologist": 8302,
      "Ġresting": 8303,
      "enger": 8304,
      "Ġdrill": 8305,
      "Ġprincipally": 8306,
      "Ġdete": 8307,
      "Ġruins": 8308,
      "Ġhorrible": 8309,
      "Ġmarve": 8310,
      "ribution": 8311,
      "Ġdisposed": 8312,
      "Ġapproaches": 8313,
      "Ġexpressions": 8314,
      "Ġmisfortune": 8315,
      "Ġsupporting": 8316,
      "Ġavi": 8317,
      "Ġavoided": 8318,
      "Ġobservation": 8319,
      "ĠPrice": 8320,
      "willing": 8321,
      "Ġwooden": 8322,
      "supply": 8323,
      "Ġplease": 8324,
      "ammunition": 8325,
      "Ġtrip": 8326,
      "Ġmidst": 8327,
      "Ġembarrass": 8328,
      "Ġ1862": 8329,
      "Ġphilosoph": 8330,
      "Ġvalleys": 8331,
      "Ġrepresentative": 8332,
      "Ġbeneficial": 8333,
      "young": 8334,
      "Ġdevoted": 8335,
      "hands": 8336,
      "Ġweakness": 8337,
      "biton": 8338,
      "Ġsurvive": 8339,
      "liminary": 8340,
      "Ġsaddle": 8341,
      "Ġwarmth": 8342,
      "Ġdiversity": 8343,
      "ĠVera": 8344,
      "Ġsufferings": 8345,
      "ĠBridgeport": 8346,
      "Austrian": 8347,
      "Ġassuredly": 8348,
      "Ġwretch": 8349,
      "Ġseventeen": 8350,
      "Ġengineers": 8351,
      "Ġignorance": 8352,
      "Ġwandered": 8353,
      "Ġreproduction": 8354,
      "Ġdeposited": 8355,
      "Ġfunctions": 8356,
      "ĠSpain": 8357,
      "American": 8358,
      "ĠChickahominy": 8359,
      "ĠPrussia": 8360,
      "ĠPrussian": 8361,
      "ĠDesdemona": 8362,
      "ĠGoldsboro": 8363,
      "Ġwitnessed": 8364,
      "Again": 8365,
      "formerly": 8366,
      "Ġadopted": 8367,
      "Geor": 8368,
      "Ġenergy": 8369,
      "Ġcopy": 8370,
      "bombard": 8371,
      "Ġcandidate": 8372,
      "Ġmongrels": 8373,
      "ĠpalÃ¦ont": 8374,
      "Ġdawn": 8375,
      "Ġmetamorph": 8376,
      "Ġadequate": 8377,
      "ĠWilderness": 8378,
      "Ġbivou": 8379,
      "Ad": 8380,
      "Am": 8381,
      "East": 8382,
      "Great": 8383,
      "Her": 8384,
      "Mar": 8385,
      "May": 8386,
      "Mexic": 8387,
      "MOVEMENT": 8388,
      "PR": 8389,
      "Sw": 8390,
      "TION": 8391,
      "aire": 8392,
      "bid": 8393,
      "bted": 8394,
      "dig": 8395,
      "eper": 8396,
      "eighth": 8397,
      "faced": 8398,
      "gent": 8399,
      "hal": 8400,
      "hig": 8401,
      "lower": 8402,
      "sen": 8403,
      "ses": 8404,
      "sum": 8405,
      "sylvania": 8406,
      "uv": 8407,
      "ument": 8408,
      "uments": 8409,
      "uitive": 8410,
      "vable": 8411,
      "wild": 8412,
      "year": 8413,
      "ĠâĢĺ": 8414,
      "Ġthee": 8415,
      "inqu": 8416,
      "Ġwave": 8417,
      "erity": 8418,
      "atical": 8419,
      "Ġban": 8420,
      "Ġbent": 8421,
      "Ġbats": 8422,
      "Ġbuck": 8423,
      "Ġbaggage": 8424,
      "ision": 8425,
      "isition": 8426,
      "Ġcro": 8427,
      "Ġcoun": 8428,
      "Ġmix": 8429,
      "Ġmathem": 8430,
      "Ġhind": 8431,
      "Ġinclined": 8432,
      "Ġincipient": 8433,
      "Ġpan": 8434,
      "asures": 8435,
      "Ġdraft": 8436,
      "state": 8437,
      "Ġease": 8438,
      "Ġlest": 8439,
      "secut": 8440,
      "seemed": 8441,
      "ĠIV": 8442,
      "ĠIvanoff": 8443,
      "Ġreject": 8444,
      "Ġrejected": 8445,
      "Ġreview": 8446,
      "utant": 8447,
      "idÃ¦": 8448,
      "ria": 8449,
      "rived": 8450,
      "aming": 8451,
      "Ġstor": 8452,
      "aining": 8453,
      "ĠShad": 8454,
      "ĠSpring": 8455,
      "ĠSpecies": 8456,
      "Ġsuit": 8457,
      "Ġsem": 8458,
      "Ġsecre": 8459,
      "Ġconvey": 8460,
      "Ġconclusions": 8461,
      "Ġrains": 8462,
      "Ġrises": 8463,
      "Ġdeleg": 8464,
      "istics": 8465,
      "ĠHaving": 8466,
      "quar": 8467,
      "Ġproceeding": 8468,
      "ĠWet": 8469,
      "ĠWind": 8470,
      "allow": 8471,
      "Ġmechan": 8472,
      "ĠPR": 8473,
      "astly": 8474,
      "Ġchair": 8475,
      "telegr": 8476,
      "teenth": 8477,
      "ĠLord": 8478,
      "Ġcommitted": 8479,
      "ĠNelson": 8480,
      "Ġfeathers": 8481,
      "Ġworn": 8482,
      "ĠDel": 8483,
      "ĠDalton": 8484,
      "deep": 8485,
      "neigh": 8486,
      "Ġclothing": 8487,
      "Ġpermission": 8488,
      "Ġjoint": 8489,
      "Ġspared": 8490,
      "ensible": 8491,
      "izia": 8492,
      "whatever": 8493,
      "Ġfoe": 8494,
      "ĠVol": 8495,
      "fulness": 8496,
      "ressing": 8497,
      "Ġliquid": 8498,
      "Ġ1913": 8499,
      "hesis": 8500,
      "Ġconsumption": 8501,
      "compet": 8502,
      "Ġregularly": 8503,
      "rentiss": 8504,
      "Ġoccasions": 8505,
      "ĠArkansas": 8506,
      "Ġsmiles": 8507,
      "Ġassuming": 8508,
      "endeav": 8509,
      "Ġfactory": 8510,
      "ĠKe": 8511,
      "Ġgoose": 8512,
      "Ġserving": 8513,
      "shore": 8514,
      "Ġimported": 8515,
      "Ġindicate": 8516,
      "lessly": 8517,
      "Ġcarri": 8518,
      "Ġembed": 8519,
      "Ġjustify": 8520,
      "ĠAsiatic": 8521,
      "insingen": 8522,
      "Ġindebted": 8523,
      "ennsylvania": 8524,
      "Ġglance": 8525,
      "Ġglacial": 8526,
      "Ġexploded": 8527,
      "prevent": 8528,
      "Ġleader": 8529,
      "Ġchest": 8530,
      "Ġdecor": 8531,
      "disp": 8532,
      "Ġvictims": 8533,
      "Ġvictorious": 8534,
      "Ġimpressed": 8535,
      "Ġadvantageous": 8536,
      "stract": 8537,
      "Ġfifth": 8538,
      "Ġ150": 8539,
      "chester": 8540,
      "chestra": 8541,
      "igel": 8542,
      "Ġcommunicate": 8543,
      "Ġcommunicated": 8544,
      "Ġillustration": 8545,
      "Ġinflict": 8546,
      "ĠPoints": 8547,
      "productions": 8548,
      "operations": 8549,
      "ĠScot": 8550,
      "Ġvillages": 8551,
      "Ġcontract": 8552,
      "Ġhelpless": 8553,
      "Ġcombat": 8554,
      "Ġtouched": 8555,
      "Ġstocks": 8556,
      "Ġwatched": 8557,
      "ACE": 8558,
      "Ġinjury": 8559,
      "Ġthrowing": 8560,
      "Ġviolence": 8561,
      "Ġboundary": 8562,
      "bitr": 8563,
      "fortunes": 8564,
      "largely": 8565,
      "mountain": 8566,
      "generations": 8567,
      "Ġarrangements": 8568,
      "hension": 8569,
      "Ġlogical": 8570,
      "Ġhunger": 8571,
      "United": 8572,
      "Ġrecognized": 8573,
      "Ġarticle": 8574,
      "Ġreduction": 8575,
      "Ġadaptation": 8576,
      "Ġidle": 8577,
      "Ġaccurate": 8578,
      "Ġaccuracy": 8579,
      "Ġconvenient": 8580,
      "ĠChickamauga": 8581,
      "build": 8582,
      "Ġtremendous": 8583,
      "Ġhatred": 8584,
      "Ġbesie": 8585,
      "fertil": 8586,
      "Ġreconnoit": 8587,
      "Ġrecollection": 8588,
      "Ġsteadily": 8589,
      "Ġmeasured": 8590,
      "Ġclothes": 8591,
      "Ġprinted": 8592,
      "principle": 8593,
      "Ġachieve": 8594,
      "Ġemerg": 8595,
      "Ġsettlement": 8596,
      "extremely": 8597,
      "established": 8598,
      "Ġshelter": 8599,
      "submarine": 8600,
      "hardly": 8601,
      "families": 8602,
      "Ġsediment": 8603,
      "ĠCruz": 8604,
      "Ġexpenditure": 8605,
      "ĠBalkan": 8606,
      "Ġmusket": 8607,
      "isfactory": 8608,
      "ĠIrish": 8609,
      "Ġknots": 8610,
      "ozoic": 8611,
      "Ġlamell": 8612,
      "normal": 8613,
      "Summary": 8614,
      "ĠSaturday": 8615,
      "!_": 8616,
      "17": 8617,
      "July": 8618,
      "Lorraine": 8619,
      "Two": 8620,
      "Treaty": 8621,
      "Your": 8622,
      "ban": 8623,
      "ding": 8624,
      "father": 8625,
      "later": 8626,
      "mas": 8627,
      "moment": 8628,
      "nut": 8629,
      "oval": 8630,
      "rum": 8631,
      "sville": 8632,
      "tation": 8633,
      "uity": 8634,
      "witz": 8635,
      "Ġtaste": 8636,
      "inj": 8637,
      "Ġwol": 8638,
      "erk": 8639,
      "Ġsir": 8640,
      "Ġsale": 8641,
      "Ġscientific": 8642,
      "enburg": 8643,
      "onies": 8644,
      "onio": 8645,
      "aters": 8646,
      "Ġbrow": 8647,
      "Ġbull": 8648,
      "itals": 8649,
      "iterr": 8650,
      "islands": 8651,
      "ismarck": 8652,
      "Ġcities": 8653,
      "Ġcaves": 8654,
      "orus": 8655,
      "Ġmixed": 8656,
      "Ġhunt": 8657,
      "Ġpounds": 8658,
      "alys": 8659,
      "Ġdense": 8660,
      "Ġthrust": 8661,
      "lebr": 8662,
      "icle": 8663,
      "Ġnerv": 8664,
      "ado": 8665,
      "Ġlat": 8666,
      "Ġlod": 8667,
      "Ġlust": 8668,
      "Ġlieutenant": 8669,
      "Ġliner": 8670,
      "omed": 8671,
      "omestic": 8672,
      "omatic": 8673,
      "uter": 8674,
      "otic": 8675,
      "Ġwhis": 8676,
      "thes": 8677,
      "think": 8678,
      "changes": 8679,
      "ande": 8680,
      "Ġstro": 8681,
      "Ġstations": 8682,
      "ett": 8683,
      "ĠAng": 8684,
      "ĠSafie": 8685,
      "Ġhaz": 8686,
      "ĠBal": 8687,
      "abb": 8688,
      "ĠMother": 8689,
      "Ġvia": 8690,
      "oda": 8691,
      "odities": 8692,
      "ĠHurlbut": 8693,
      "open": 8694,
      "apagos": 8695,
      "Ġprosper": 8696,
      "Ġshipping": 8697,
      "Ġnectar": 8698,
      "univers": 8699,
      "Ġwheels": 8700,
      "ĠRule": 8701,
      "ĠFR": 8702,
      "Ġkne": 8703,
      "Ġlean": 8704,
      "Ġleve": 8705,
      "roud": 8706,
      "Ġplenty": 8707,
      "ĠLanc": 8708,
      "Ġadjust": 8709,
      "ĠEn": 8710,
      "Ġfeatures": 8711,
      "Ġspecified": 8712,
      "plain": 8713,
      "Ġworst": 8714,
      "ĠDec": 8715,
      "dev": 8716,
      "dead": 8717,
      "depart": 8718,
      "oka": 8719,
      "Ġunconscious": 8720,
      "behind": 8721,
      "Ġperceive": 8722,
      "constant": 8723,
      "Ġquitted": 8724,
      "ĠInfantry": 8725,
      "Ġample": 8726,
      "Ġdesol": 8727,
      "Ġremove": 8728,
      "angled": 8729,
      "Ġflame": 8730,
      "Ġflung": 8731,
      "Ġcompre": 8732,
      "Ġafterward": 8733,
      "Ġdistances": 8734,
      "Ġaccustomed": 8735,
      "fects": 8736,
      "comes": 8737,
      "arkation": 8738,
      "Ġrelating": 8739,
      "ĠArmen": 8740,
      "Ġgrasp": 8741,
      "Ġfrontiers": 8742,
      "phal": 8743,
      "Ġcontinental": 8744,
      "Ġcharges": 8745,
      "Ġscope": 8746,
      "Ġartist": 8747,
      "Ġintellect": 8748,
      "ĠĠĠĠĠĠĠĠĠĠĠĠĠĠĠĠĠĠĠĠĠĠĠĠĠĠĠĠĠĠĠĠĠĠĠĠĠĠĠĠ": 8749,
      "Third": 8750,
      "Ġdestroyers": 8751,
      "Ġmainland": 8752,
      "Ġdelayed": 8753,
      "Ġadds": 8754,
      "Ġtender": 8755,
      "preced": 8756,
      "ĠConsequently": 8757,
      "arges": 8758,
      "Ġearnest": 8759,
      "Ġhorns": 8760,
      "rowned": 8761,
      "Ġshortly": 8762,
      "ĠFranc": 8763,
      "Ġhabitually": 8764,
      "ESS": 8765,
      "Ġparticip": 8766,
      "Ġfavoured": 8767,
      "Ġmachinery": 8768,
      "Ġrefuge": 8769,
      "spir": 8770,
      "Ġgrades": 8771,
      "Ġoccurrence": 8772,
      "Ġseparation": 8773,
      "Ġelevation": 8774,
      "occurred": 8775,
      "Ġplanned": 8776,
      "offspring": 8777,
      "Ġinstinctive": 8778,
      "Ġsigned": 8779,
      "ICAL": 8780,
      "production": 8781,
      "Ġedges": 8782,
      "Ġcelebr": 8783,
      "Ġsorts": 8784,
      "throughout": 8785,
      "Ġdetailed": 8786,
      "Ġprivile": 8787,
      "Ġreplaced": 8788,
      "Ġapplicable": 8789,
      "ĠBohem": 8790,
      "Ġvertebr": 8791,
      "Ġenterprise": 8792,
      "everything": 8793,
      "Ġendeavour": 8794,
      "Ġconceal": 8795,
      "Ġneighboring": 8796,
      "Ġfacility": 8797,
      "breeds": 8798,
      "Ġembryos": 8799,
      "Ġinferred": 8800,
      "ASH": 8801,
      "Ġgolden": 8802,
      "Ġemployment": 8803,
      "ĠBerkeley": 8804,
      "Ġanalogy": 8805,
      "Ġlegisl": 8806,
      "probable": 8807,
      "ciliation": 8808,
      "single": 8809,
      "Ġerrone": 8810,
      "Ġgentleman": 8811,
      "Ġsongs": 8812,
      "individual": 8813,
      "European": 8814,
      "Ġinvestment": 8815,
      "system": 8816,
      "isloka": 8817,
      "Ġstraits": 8818,
      "Ġskirmishing": 8819,
      "gradation": 8820,
      "Ġengineer": 8821,
      "Ġagreeable": 8822,
      "closely": 8823,
      "Ġmessage": 8824,
      "ĠFORT": 8825,
      "Ġstretched": 8826,
      "Ġpurchase": 8827,
      "described": 8828,
      "Italy": 8829,
      "Ġmagnific": 8830,
      "Ġbulk": 8831,
      "ĠMalay": 8832,
      "Ġsacrifice": 8833,
      "Ġprecaut": 8834,
      "Ġreversion": 8835,
      "Ġsuspic": 8836,
      "concern": 8837,
      "Ġparapet": 8838,
      "ĠBurkesville": 8839,
      "Ġensued": 8840,
      "strength": 8841,
      "ĠArticle": 8842,
      "Ġempty": 8843,
      "accomplished": 8844,
      "-------": 8845,
      "situation": 8846,
      "Ġquadrupeds": 8847,
      "Ġmaximum": 8848,
      "Ġcommissary": 8849,
      "Ġacknowledged": 8850,
      "ĠCadorna": 8851,
      "iterranean": 8852,
      "55": 8853,
      "85": 8854,
      "August": 8855,
      "According": 8856,
      "Cler": 8857,
      "El": 8858,
      "IM": 8859,
      "Mon": 8860,
      "Ne": 8861,
      "OF": 8862,
      "OUT": 8863,
      "Queen": 8864,
      "ais": 8865,
      "aren": 8866,
      "bacco": 8867,
      "cus": 8868,
      "cast": 8869,
      "garrison": 8870,
      "hr": 8871,
      "hours": 8872,
      "lad": 8873,
      "living": 8874,
      "mur": 8875,
      "nine": 8876,
      "rants": 8877,
      "sed": 8878,
      "sou": 8879,
      "uating": 8880,
      "uously": 8881,
      "Ġted": 8882,
      "Ġtents": 8883,
      "Ġax": 8884,
      "inson": 8885,
      "inement": 8886,
      "reach": 8887,
      "reaching": 8888,
      "nded": 8889,
      "Ġbab": 8890,
      "Ġbore": 8891,
      "Ġbos": 8892,
      "Ġbree": 8893,
      "Ġbought": 8894,
      "Ġbrown": 8895,
      "itan": 8896,
      "itself": 8897,
      "Ġfed": 8898,
      "Ġfashion": 8899,
      "Ġcraw": 8900,
      "Ġhus": 8901,
      "Ġhull": 8902,
      "Ġincess": 8903,
      "Ġinches": 8904,
      "Ġinvent": 8905,
      "Ġprud": 8906,
      "alic": 8907,
      "Ġthro": 8908,
      "leaving": 8909,
      "stat": 8910,
      "station": 8911,
      "stage": 8912,
      "Ġeternal": 8913,
      "Ġlosing": 8914,
      "Ġgovernments": 8915,
      "Ġghost": 8916,
      "otions": 8917,
      "imony": 8918,
      "ĠTod": 8919,
      "thello": 8920,
      "iraffe": 8921,
      "Ġitems": 8922,
      "Ġhereditary": 8923,
      "ilurian": 8924,
      "aments": 8925,
      "Ġattained": 8926,
      "ette": 8927,
      "ĠAlexand": 8928,
      "ĠSedgwick": 8929,
      "Ġsuspect": 8930,
      "Ġselect": 8931,
      "Ġseasons": 8932,
      "acent": 8933,
      "ĠBuck": 8934,
      "Ġnoted": 8935,
      "Ġnoticed": 8936,
      "emp": 8937,
      "emen": 8938,
      "abilities": 8939,
      "uled": 8940,
      "Ġexagg": 8941,
      "anton": 8942,
      "ĠMat": 8943,
      "thers": 8944,
      "quare": 8945,
      "oping": 8946,
      "unless": 8947,
      "ĠWisloka": 8948,
      "osure": 8949,
      "fere": 8950,
      "fellow": 8951,
      "ferent": 8952,
      "ĠRad": 8953,
      "ĠPil": 8954,
      "ĠPres": 8955,
      "aston": 8956,
      "Ġleaf": 8957,
      "Ġmane": 8958,
      "ĠLew": 8959,
      "Ġcomma": 8960,
      "Ġthereby": 8961,
      "ĠEntente": 8962,
      "idea": 8963,
      "Ġclust": 8964,
      "Ġuncertain": 8965,
      "Ġoutput": 8966,
      "ĠThrough": 8967,
      "pson": 8968,
      "Ġperish": 8969,
      "Ġperfected": 8970,
      "Ġthank": 8971,
      "intention": 8972,
      "suff": 8973,
      "sugg": 8974,
      "sudden": 8975,
      "Ġjun": 8976,
      "Ġjaw": 8977,
      "Ġuses": 8978,
      "Ġfog": 8979,
      "Ġflanks": 8980,
      "Ġfluct": 8981,
      "jection": 8982,
      "Ġsubtle": 8983,
      "Ġcontent": 8984,
      "ressions": 8985,
      "ograp": 8986,
      "Ġadvoc": 8987,
      "landing": 8988,
      "prove": 8989,
      "attering": 8990,
      "Ġdiffered": 8991,
      "Ġpresume": 8992,
      "blance": 8993,
      "Ġsmell": 8994,
      "ĠKir": 8995,
      "âĢľâĢĺ": 8996,
      "ĠOnce": 8997,
      "Ġhanded": 8998,
      "Ġdestination": 8999,
      "Ġmob": 9000,
      "Ġdifferently": 9001,
      "Ġeminently": 9002,
      "Ġrepaired": 9003,
      "ĠAtt": 9004,
      "ĠTurk": 9005,
      "Ġconfirmed": 9006,
      "commenced": 9007,
      "Ġopponents": 9008,
      "habits": 9009,
      "ĠSeventh": 9010,
      "ALL": 9011,
      "formations": 9012,
      "asha": 9013,
      "Ġdetained": 9014,
      "Ġsinging": 9015,
      "Ġtear": 9016,
      "Ġglove": 9017,
      "Ġeasier": 9018,
      "Ġequator": 9019,
      "Ġ600": 9020,
      "Ġannoy": 9021,
      "Ġdispatched": 9022,
      "difference": 9023,
      "Ġbuy": 9024,
      "Ġabsurd": 9025,
      "aze": 9026,
      "Ġimpat": 9027,
      "Ġassaulted": 9028,
      "Ġpursuing": 9029,
      "column": 9030,
      "support": 9031,
      "slow": 9032,
      "Ġsystematic": 9033,
      "foot": 9034,
      "Ġlargest": 9035,
      "Ġwonderfully": 9036,
      "Ġopposing": 9037,
      "Ġexpectation": 9038,
      "Ġthreaten": 9039,
      "Ġcreate": 9040,
      "uffs": 9041,
      "ĠPolish": 9042,
      "Ġfavorite": 9043,
      "Another": 9044,
      "ucah": 9045,
      "Ġdiscussion": 9046,
      "Ġtravelled": 9047,
      "Ġsuperiority": 9048,
      "Ġsailed": 9049,
      "Ġinjured": 9050,
      "Ġflags": 9051,
      "complex": 9052,
      "Ġdipl": 9053,
      "Ġdivergence": 9054,
      "explos": 9055,
      "Ġsubsidence": 9056,
      "Ġinvestments": 9057,
      "Ġfloor": 9058,
      "increased": 9059,
      "Columb": 9060,
      "objects": 9061,
      "Ġexhaust": 9062,
      "arrived": 9063,
      "feeling": 9064,
      "description": 9065,
      "Ġobstacle": 9066,
      "IRST": 9067,
      "Ġinevitable": 9068,
      "ĠGorizia": 9069,
      "worthy": 9070,
      "Ġfrightened": 9071,
      "Ġinvolve": 9072,
      "Ġhalted": 9073,
      "Petersburg": 9074,
      "determined": 9075,
      "SHERIDAN": 9076,
      "Ġpositive": 9077,
      "Ġassembled": 9078,
      "Ġconquered": 9079,
      "Johnston": 9080,
      "VANCE": 9081,
      "battles": 9082,
      "constructed": 9083,
      "Ġpulled": 9084,
      "naturally": 9085,
      "Ġaquatic": 9086,
      "Ġstrategic": 9087,
      "corresponding": 9088,
      "aroslav": 9089,
      "ĠBassee": 9090,
      "wonder": 9091,
      "beginning": 9092,
      "Ġartificial": 9093,
      "Ġglaciers": 9094,
      "Ġelaborate": 9095,
      "Ġimpassable": 9096,
      "Ġlofty": 9097,
      "ĠBirney": 9098,
      "ĠRaymond": 9099,
      "clamation": 9100,
      "Ġmarvell": 9101,
      "bombardment": 9102,
      "22": 9103,
      "26": 9104,
      "EG": 9105,
      "LER": 9106,
      "PH": 9107,
      "SS": 9108,
      "Sir": 9109,
      "Ste": 9110,
      "UP": 9111,
      "cad": 9112,
      "dark": 9113,
      "ears": 9114,
      "fut": 9115,
      "furn": 9116,
      "gonne": 9117,
      "hour": 9118,
      "horn": 9119,
      "jour": 9120,
      "lice": 9121,
      "leness": 9122,
      "mark": 9123,
      "named": 9124,
      "ois": 9125,
      "oir": 9126,
      "pence": 9127,
      "rapid": 9128,
      "rades": 9129,
      "say": 9130,
      "tor": 9131,
      "Ã«": 9132,
      "ÃĨ": 9133,
      "Ġze": 9134,
      "Ġaug": 9135,
      "Ġahead": 9136,
      "intend": 9137,
      "really": 9138,
      "report": 9139,
      "Ġwine": 9140,
      "Ġwars": 9141,
      "ericksburg": 9142,
      "atcher": 9143,
      "Ġfi": 9144,
      "Ġfrock": 9145,
      "Ġcow": 9146,
      "Ġcake": 9147,
      "Ġmour": 9148,
      "Ġmars": 9149,
      "Ġtoler": 9150,
      "Ġharsh": 9151,
      "Ġinexpl": 9152,
      "Ġpel": 9153,
      "Ġpup": 9154,
      "Ġphenom": 9155,
      "Ġdancing": 9156,
      "Ġthr": 9157,
      "Ġthou": 9158,
      "Ġnoun": 9159,
      "Ġnerves": 9160,
      "entered": 9161,
      "Ġlaugh": 9162,
[...]
